<unk>	0
<s>	0
</s>	0
,	-2.78319
▁	-2.96629
:	-3.51434
。	-3.98192
、	-4.33994
.	-4.38498
/	-4.54687
的	-4.69415
?	-4.78337
(	-4.93499
_	-5.00503
▁医生	-5.06447
s	-5.22685
g	-5.2457
▁病人	-5.26104
了	-5.28473
主要症状	-5.32065
发病时间	-5.32096
com	-5.33075
▁曾经治疗情况和效果	-5.33118
haodf	-5.33177
▁想得到怎样的帮助	-5.33182
id	-5.33218
▁病情描述	-5.33228
://	-5.33311
htm	-5.33316
www	-5.33379
▁http	-5.33456
wenda	-5.33468
Di	-5.33482
alo	-5.33483
▁Doctor	-5.33484
gue	-5.33484
faculty	-5.33485
▁Description	-5.33487
▁疾病	-5.33782
):	-5.33845
就诊医院等	-5.34021
=	-5.40095
有	-5.50377
是	-5.51716
我	-5.6332
在	-5.77062
!	-5.8262
2	-5.89793
治疗	-5.90701
3	-5.91016
后	-5.91255
吗	-5.91981
和	-5.93413
不	-5.97312
1	-6.07007
月	-6.07116
手术	-6.15565
4	-6.16611
检查	-6.18258
现在	-6.21276
年	-6.2523
做	-6.27535
5	-6.29298
)	-6.32043
就	-6.33461
到	-6.37296
医生	-6.40574
6	-6.40913
可以	-6.42058
没有	-6.4797
7	-6.50096
岁	-6.50981
12	-6.53944
10	-6.55349
但	-6.56142
上	-6.58201
还是	-6.58454
也	-6.60049
能	-6.61204
一	-6.61233
天	-6.63375
医院	-6.63637
好	-6.64633
要	-6.65948
日	-6.66344
您	-6.68361
性	-6.70054
吃	-6.70304
8	-6.70647
用	-6.70697
下	-6.75787
正常	-6.75896
谢谢	-6.76207
去	-6.76658
说	-6.77479
时	-6.77549
来	-6.78159
会	-6.82413
都	-6.83396
11	-6.83593
药	-6.837
看	-6.84918
过	-6.86647
大夫	-6.87428
9	-6.87692
;	-6.91841
大	-6.92575
为	-6.92652
前	-6.92885
如果	-6.92965
需要	-6.93403
没	-6.9367
多	-6.94043
又	-6.95798
呢	-6.97542
号	-6.98782
及	-7.01684
小	-7.02264
再	-7.02997
建议	-7.04616
你	-7.0518
B	-7.06774
但是	-7.07219
还	-7.07546
等	-7.07883
可	-7.087
片	-7.09421
很	-7.11396
感觉	-7.12097
对	-7.12512
无	-7.12668
我们	-7.13408
内	-7.14986
20	-7.15813
孩子	-7.1767
-	-7.19
想	-7.19332
症状	-7.20245
点	-7.20464
高	-7.21064
63	-7.21516
中	-7.22216
疼痛	-7.22575
发现	-7.2302
病	-7.23165
就是	-7.26262
还有	-7.27262
长	-7.2798
一直	-7.30344
是不是	-7.32352
痛	-7.32532
请问	-7.33241
做了	-7.33864
这	-7.34706
血	-7.35571
*	-7.36062
15	-7.37113
得	-7.37141
CT	-7.37144
是否	-7.37286
或	-7.37516
啊	-7.37669
mm	-7.38512
因为	-7.38882
一次	-7.38977
心	-7.3943
已经	-7.40026
个	-7.40074
不能	-7.41387
科	-7.41496
时间	-7.41812
左	-7.42477
疼	-7.43109
19	-7.43286
30	-7.44519
的时候	-7.45488
复查	-7.45591
目前	-7.45646
应该	-7.4684
从	-7.46853
次	-7.47106
情况	-7.47295
发	-7.47435
cm	-7.4783
开始	-7.48002
有点	-7.50021
人	-7.51059
怀孕	-7.51358
先	-7.51459
出现	-7.51534
个月	-7.51982
三	-7.52102
咳嗽	-7.52699
什么	-7.52777
超	-7.52815
语	-7.53219
查	-7.54044
出	-7.55433
右	-7.56295
服用	-7.56501
一下	-7.56595
这个	-7.5675
寄	-7.57033
打	-7.57655
可能	-7.57922
就诊	-7.58067
24	-7.58374
25	-7.58801
我的	-7.59023
吃了	-7.59419
今年	-7.59442
一个	-7.59693
看看	-7.60123
_638	-7.60127
真情	-7.60156
结果	-7.60281
▁谢谢	-7.60488
最近	-7.61368
与	-7.62037
效果	-7.62771
一般	-7.62856
于	-7.63575
他	-7.64039
度	-7.64793
骨	-7.65073
未	-7.65078
术后	-7.65158
问题	-7.65312
月经	-7.65878
▁你好	-7.66015
见	-7.66969
那	-7.66987
周	-7.67659
吧	-7.67738
28	-7.69624
子	-7.70126
的话	-7.70652
医生说	-7.70708
外	-7.71896
并	-7.71965
),	-7.71995
▁我	-7.72647
13	-7.72736
做过	-7.73053
▁您好	-7.73106
如	-7.7323
处	-7.73307
月份	-7.74558
药物	-7.74609
进行	-7.74948
一些	-7.75032
宝宝	-7.75358
65	-7.7563
住院	-7.75989
因	-7.76244
li	-7.76511
吃药	-7.76872
请	-7.76884
左右	-7.77328
16	-7.77647
40	-7.78204
病情	-7.78335
17	-7.78513
14	-7.7854
诊断	-7.78643
两	-7.78711
已	-7.7906
27	-7.7919
炎	-7.80456
18	-7.81609
左侧	-7.81631
不好	-7.81691
不知道	-7.82098
脑	-7.82536
头	-7.82544
开	-7.82844
这样	-7.8366
自己	-7.84062
50	-7.84566
带	-7.84595
▁请问	-7.84855
26	-7.84896
眼	-7.8503
着	-7.85297
明显	-7.85375
门诊	-7.85665
化疗	-7.85665
右侧	-7.85897
以前	-7.86131
T	-7.86234
60	-7.86268
其他	-7.86783
才	-7.86908
患者	-7.87058
而且	-7.8797
比较	-7.88151
所以	-7.88477
有时	-7.88672
神经	-7.88698
尿	-7.88991
+	-7.89286
出血	-7.89354
体	-7.89365
以后	-7.90348
L	-7.90481
22	-7.90503
部	-7.90541
二	-7.90904
水	-7.90978
35	-7.91216
把	-7.91286
治	-7.91455
量	-7.91577
感冒	-7.91676
23	-7.91871
中药	-7.92167
每天	-7.9243
晚上	-7.93183
29	-7.93281
主任	-7.93403
当时	-7.93488
给	-7.93977
现	-7.94473
最好	-7.9463
肿瘤	-7.94869
dr	-7.95227
严重	-7.9552
怎么	-7.95728
行	-7.96004
今天	-7.96203
21	-7.96208
恢复	-7.96296
眼睛	-7.96362
加	-7.96581
生	-7.96941
感染	-7.97296
约	-7.9737
用药	-7.97547
快	-7.98083
0	-7.98503
管	-7.98714
能否	-7.98717
四	-7.99606
经常	-7.99952
70	-8.00474
肝	-8.00863
复发	-8.01012
气	-8.01246
不是	-8.01362
口	-8.01563
38	-8.01975
646	-8.02097
经	-8.02485
45	-8.02816
太	-8.0291
身体	-8.03175
起	-8.03178
型	-8.03189
只	-8.03757
39	-8.03848
62	-8.03961
动	-8.04198
58	-8.04799
牙	-8.04842
后来	-8.04925
小孩	-8.04974
或者	-8.05228
子宫	-8.05326
之前	-8.06294
胃	-8.06348
您好	-8.06896
C	-8.07203
期	-8.07386
低	-8.07533
这种情况	-8.07651
2011	-8.08045
痒	-8.08094
分	-8.08271
影响	-8.08565
像	-8.08568
A	-8.0896
疾病	-8.09273
少	-8.09399
大小	-8.09868
近	-8.10064
显示	-8.10231
只是	-8.10819
之后	-8.1101
中医	-8.11119
33	-8.11246
甲状腺	-8.11418
区	-8.11759
手	-8.12186
说是	-8.12294
都是	-8.12316
状	-8.12478
l	-8.1248
做手术	-8.12598
然后	-8.13028
让	-8.13322
咨询	-8.13727
她	-8.13856
我现在	-8.14427
病人	-8.1467
里	-8.14701
囊肿	-8.14975
红	-8.15343
以	-8.15378
比	-8.15541
确诊	-8.16349
t	-8.1644
考虑	-8.16548
90	-8.1694
47	-8.16942
症	-8.17132
67	-8.17404
针	-8.175
很多	-8.17528
大便	-8.17591
找	-8.18043
切除	-8.18069
地	-8.18833
酸	-8.18898
的药	-8.18909
具体	-8.19008
双侧	-8.19062
控制	-8.19143
c	-8.19444
外科	-8.19852
68	-8.19974
教授	-8.21043
一天	-8.21104
a	-8.21562
37	-8.21626
异常	-8.21655
如何	-8.21656
胶囊	-8.21661
做的	-8.21815
黄	-8.2208
给我	-8.22081
有没有	-8.22082
最	-8.22199
成	-8.22229
么	-8.22416
中心	-8.22452
大概	-8.22752
预约	-8.23445
36	-8.23573
关节	-8.23596
34	-8.24331
S	-8.24485
X	-8.24853
清	-8.24972
x	-8.25199
继续	-8.255
09	-8.2567
白	-8.25727
皮肤	-8.26056
你的	-8.26432
跟	-8.26484
去医院	-8.26496
肾	-8.26543
z	-8.27143
脚	-8.27573
患	-8.27678
b	-8.27691
49	-8.27693
而	-8.27752
我是	-8.27884
会不会	-8.28062
%	-8.28111
80	-8.28177
zhang	-8.28186
59	-8.28298
“	-8.28508
可见	-8.28509
感	-8.28523
654	-8.28654
发病	-8.28808
31	-8.28925
m	-8.29002
48	-8.2948
不知	-8.29534
h	-8.29618
变	-8.2971
双	-8.29724
重	-8.29978
▁妇科	-8.30009
希望	-8.3005
66	-8.30063
平时	-8.301
均	-8.30143
口服	-8.30149
您的	-8.30372
▁可以	-8.30378
些	-8.30421
线	-8.3045
wang	-8.30493
更	-8.30556
心脏	-8.31116
力	-8.31791
CM	-8.31843
较	-8.32106
”	-8.32545
总	-8.32615
一点	-8.32651
32	-8.32652
癌	-8.32683
服	-8.33009
77	-8.33111
由于	-8.33461
y	-8.33733
刚	-8.33764
88	-8.34067
被	-8.34092
69	-8.34306
好了	-8.34595
几	-8.34615
半	-8.34731
08	-8.34853
向	-8.34903
术	-8.35387
面	-8.35954
血管	-8.35976
注意	-8.36357
应	-8.36679
安	-8.37279
非常	-8.37344
市	-8.3738
鼻	-8.37424
化验	-8.37473
回	-8.37788
w	-8.37845
75	-8.3798
一个月	-8.38336
自	-8.38408
P	-8.38443
院	-8.38698
能不能	-8.38716
听	-8.38915
原因	-8.3897
看过	-8.39011
位	-8.39192
几天	-8.39476
回声	-8.39497
才能	-8.3958
光	-8.39619
怕	-8.39635
半年	-8.39803
第	-8.40129
我想	-8.40148
谢谢您	-8.40194
一样	-8.40247
有些	-8.40345
不会	-8.40422
655	-8.40513
十	-8.40567
00	-8.40588
需	-8.4073
细胞	-8.40841
肺	-8.4094
走路	-8.41025
阳性	-8.41185
转移	-8.4119
该	-8.41328
通	-8.41348
平	-8.41373
46	-8.41712
事	-8.42189
至	-8.42321
观察	-8.4239
43	-8.4272
检测	-8.4274
另外	-8.42788
专家	-8.42797
MM	-8.43264
激素	-8.4341
未见	-8.43474
看了	-8.43517
d	-8.43604
D	-8.43909
定	-8.43922
两次	-8.44399
报告	-8.44678
发烧	-8.44828
647	-8.44952
检查结果	-8.45123
E	-8.45293
5.	-8.45336
▁患者女	-8.45363
回复	-8.45386
样	-8.45556
72	-8.45781
结节	-8.46011
根据	-8.46238
▁无	-8.46414
的情况	-8.4647
基本	-8.46526
活动	-8.46617
拉	-8.4679
早	-8.47008
这种	-8.47029
只有	-8.47123
查出	-8.4718
44	-8.47267
每次	-8.47288
55	-8.47636
无法	-8.47895
功能	-8.47971
出院	-8.48343
61	-8.48361
好转	-8.4843
同时	-8.48598
担心	-8.48992
人民医院	-8.48999
期间	-8.49119
儿童医院	-8.49236
▁皮肤科	-8.49307
4.	-8.49496
可是	-8.4967
干	-8.49927
o	-8.49991
持续	-8.50037
片子	-8.50107
挂	-8.50166
呈	-8.5034
腿	-8.50723
腰	-8.50739
引起的	-8.51016
▁眼科	-8.51111
热	-8.5154
彩超	-8.51663
j	-8.51768
新	-8.5193
发作	-8.52205
▁建议	-8.52463
稍	-8.52713
喝	-8.52772
肿	-8.53177
资料	-8.5326
手术后	-8.53331
家	-8.53521
有什么	-8.537
宫颈	-8.53822
膜	-8.53949
血压	-8.53987
到医院	-8.54031
头晕	-8.54163
发育	-8.54313
抗	-8.5456
通过	-8.55429
42	-8.55526
开了	-8.55659
完	-8.55959
段	-8.55975
胸	-8.56029
瘤	-8.56047
导致	-8.56135
53	-8.56539
完全	-8.5668
64	-8.56951
转	-8.57035
部分	-8.57066
缓解	-8.57073
病变	-8.57114
怎样	-8.57218
治愈	-8.5758
女	-8.57811
慢性	-8.58106
取	-8.58219
淋巴结	-8.58383
级	-8.58836
老	-8.58858
视力	-8.58915
流	-8.58925
引起	-8.5896
好像	-8.59045
使用	-8.59067
~	-8.59096
的问题	-8.5915
轻度	-8.5943
56	-8.5955
按	-8.59554
p	-8.59689
▁2011	-8.59835
停药	-8.5984
不要	-8.59903
值	-8.59963
I	-8.60094
▁患者男	-8.60134
特别	-8.60226
阴性	-8.6036
运动	-8.60381
掉	-8.60443
帮助	-8.60708
觉得	-8.60842
74	-8.60963
皮	-8.6127
服药	-8.6131
化	-8.61312
不适	-8.61384
89	-8.61629
2.	-8.61706
不用	-8.61718
注射	-8.61743
你好	-8.61747
06	-8.6175
liu	-8.61755
小时	-8.62004
曾	-8.6251
肌	-8.62842
问	-8.63045
五	-8.63154
所	-8.63156
41	-8.63156
出来	-8.63163
起来	-8.63222
98	-8.63427
71	-8.63771
工作	-8.63809
差	-8.64313
吃过	-8.6443
57	-8.64446
一周	-8.64542
素	-8.64593
多少	-8.64638
伴	-8.64877
昨天	-8.65051
未见异常	-8.65061
三个月	-8.65194
急	-8.65207
下午	-8.65226
骨折	-8.65414
jun	-8.65498
过敏	-8.65544
阳	-8.65644
包	-8.65733
方法	-8.65787
301	-8.6649
诊断为	-8.66628
放疗	-8.66671
利	-8.66704
手术治疗	-8.67259
也不	-8.67357
一年	-8.67411
年前	-8.67525
可能是	-8.67685
▁好的	-8.67806
▁1、	-8.6794
2010	-8.67943
数	-8.67986
e	-8.68026
炎症	-8.6812
耳	-8.68178
突然	-8.68236
准备	-8.68276
看到	-8.68277
费用	-8.68555
只能	-8.68603
高血压	-8.68611
多久	-8.69149
张	-8.69213
生活	-8.69236
确定	-8.69372
白细胞	-8.69424
叶	-8.69666
的症状	-8.69769
影	-8.69965
当	-8.70024
wei	-8.70392
排除	-8.70684
全	-8.70832
液	-8.70864
走	-8.70932
此	-8.71085
单	-8.71231
特	-8.7128
6.	-8.71411
肠	-8.71504
也是	-8.71656
属于	-8.71819
工作室	-8.71848
省	-8.72002
到现在	-8.72358
指	-8.72427
六	-8.7248
这是	-8.72578
作	-8.728
▁好大夫	-8.729
全身	-8.72937
54	-8.72966
粒	-8.72976
81	-8.73002
增生	-8.73109
78	-8.73137
▁谢谢您	-8.73205
yu	-8.73228
52	-8.73242
改善	-8.73247
M	-8.73299
鼻子	-8.73573
再次	-8.73718
99	-8.73769
主要	-8.74386
第一次	-8.74465
测	-8.74541
▁有新资料上传	-8.74611
07	-8.74613
73	-8.74642
05	-8.7465
▁想	-8.74788
▁骨科	-8.74879
chen	-8.74944
偶尔	-8.74961
反复	-8.74971
换	-8.75116
不舒服	-8.75176
便	-8.7524
睡	-8.75302
至今	-8.75433
糖尿病	-8.75607
各	-8.75726
两个月	-8.75764
补	-8.75852
饮食	-8.75861
组织	-8.75877
部位	-8.75912
怎么治疗	-8.75967
很好	-8.76007
那个	-8.76122
▁现在	-8.76219
睡觉	-8.76359
伤	-8.76464
体检	-8.76917
停	-8.76939
狭窄	-8.76978
保守治疗	-8.77155
76	-8.77172
直接	-8.77189
看一下	-8.77217
处理	-8.77292
79	-8.77493
1.	-8.77495
也没	-8.77506
是什么	-8.78082
两天	-8.78212
现象	-8.78255
其它	-8.78291
hong	-8.78343
超声	-8.78348
这次	-8.78382
呼吸	-8.78389
上传	-8.78441
吐	-8.78479
有关	-8.78622
02	-8.78715
精神	-8.78782
心理	-8.78982
硬	-8.7904
阴道	-8.79147
i	-8.79225
物	-8.79325
正	-8.79496
H	-8.79502
损伤	-8.79632
肿块	-8.79652
xiao	-8.79964
加重	-8.79975
让我	-8.79979
如果是	-8.80138
甲	-8.80158
f	-8.80588
侧	-8.80641
病理	-8.80649
n	-8.80763
将	-8.80775
排	-8.80834
为什么	-8.80956
晚	-8.80971
明确	-8.81137
短	-8.81304
余	-8.81348
胎儿	-8.81376
且	-8.81531
发生	-8.81789
间	-8.8194
的治疗	-8.8205
内科	-8.82365
咳	-8.82543
反应	-8.82587
参考值	-8.82754
尽快	-8.82831
85	-8.83005
痰	-8.83052
来月经	-8.83144
根	-8.83412
乳腺	-8.8344
声	-8.83502
常	-8.83507
什么时候	-8.83558
会有	-8.83636
年龄	-8.83699
照	-8.83821
东西	-8.83823
偏	-8.83964
51	-8.84049
R	-8.8407
以上	-8.84071
同	-8.84157
乙肝	-8.84688
总是	-8.84715
颗粒	-8.8485
放	-8.84891
爱	-8.85157
住	-8.85294
静脉	-8.85333
坐	-8.85589
3.	-8.85944
克	-8.861
ml	-8.86162
看病	-8.86243
也没有	-8.86273
八	-8.86277
节	-8.86296
95	-8.86356
87	-8.86399
类	-8.86496
其	-8.8653
84	-8.86541
怎么办	-8.86641
有效	-8.86792
▁儿科	-8.86811
了解	-8.86817
输液	-8.86835
康复	-8.86852
03	-8.86871
血糖	-8.8705
右眼	-8.8706
好的	-8.87336
改变	-8.8751
82	-8.87568
▁想知道	-8.87615
照片	-8.87619
方	-8.87852
深	-8.87871
治好	-8.88025
丸	-8.88044
抗体	-8.8815
▁如果	-8.88165
左眼	-8.88393
▁妇产科	-8.88448
精子	-8.88548
有时候	-8.88645
乳	-8.88849
颈椎	-8.8897
也有	-8.89
呀	-8.89063
0.	-8.89175
去年	-8.89401
jian	-8.89426
的是	-8.89579
壁	-8.89665
息肉	-8.89668
康	-8.89728
裂	-8.90012
早上	-8.90092
药物治疗	-8.90251
孕	-8.90275
西	-8.90331
局部	-8.90342
97	-8.90533
脸	-8.90615
冷	-8.90671
卵泡	-8.90717
洗	-8.90763
学	-8.90766
解决	-8.90836
91	-8.90928
G	-8.90998
医生建议	-8.91
判断	-8.91191
动脉	-8.91263
请您	-8.91393
)。	-8.91417
▁神经外科	-8.91514
未见明显异常	-8.91551
轻	-8.91605
头痛	-8.91713
的感觉	-8.91718
拿	-8.91776
83	-8.9179
不过	-8.91846
医	-8.91943
增大	-8.91966
▁泌尿外科	-8.92047
达	-8.92054
大约	-8.92093
美	-8.92153
肺炎	-8.92164
扩张	-8.92189
一段时间	-8.92449
▁不客气	-8.92461
受	-8.92574
hui	-8.92717
V	-8.92853
两个	-8.92863
减轻	-8.92923
造影	-8.93043
100	-8.93069
出生	-8.93099
就会	-8.93104
剂	-8.9312
打了	-8.932
根治	-8.93565
腹部	-8.93631
癫痫	-8.93666
每	-8.93744
yan	-8.93851
困难	-8.93961
形态	-8.94048
腹	-8.94118
相	-8.94234
色	-8.94241
率	-8.94524
还要	-8.94605
拍	-8.94673
主要是	-8.94705
原	-8.94729
花	-8.94743
方案	-8.95141
呕吐	-8.95167
描述	-8.95268
米	-8.95542
囊	-8.95655
▁请	-8.957
连续	-8.95725
那么	-8.95765
这样的	-8.95807
治疗方案	-8.9585
可以吗	-8.9616
知道	-8.96203
颈	-8.96231
质	-8.9646
男	-8.96485
体重	-8.96775
指标	-8.96963
厘米	-8.97008
hua	-8.97011
万	-8.97397
96	-8.97442
强	-8.97584
上班	-8.97642
休息	-8.97721
本人	-8.97824
连	-8.97896
三天	-8.97925
睾丸	-8.98025
01	-8.98094
麻	-8.98359
联系	-8.98519
之	-8.98545
儿	-8.9866
哪	-8.98694
大小约	-8.98756
南	-8.98792
这些	-8.98858
▁首都医科大学附属北京	-8.9918
消炎	-8.99204
活检	-8.99228
降	-8.9947
的原因	-8.99513
经过	-8.99723
别的	-8.99781
能够	-8.99809
环	-8.99947
金	-9.00196
若	-9.00202
镜	-9.00244
吃饭	-9.00287
真的	-9.00294
u	-9.00374
滴	-9.00416
输卵管	-9.00491
yang	-9.00519
04	-9.00543
隔	-9.00578
睡眠	-9.00598
精	-9.00647
不大	-9.00678
很大	-9.00746
怎么样	-9.00761
颈部	-9.00861
多长时间	-9.00952
结	-9.01098
。。。	-9.0115
如何治疗	-9.01196
得到	-9.01555
可以做	-9.01569
厉害	-9.016
压	-9.01617
白天	-9.01624
86	-9.0167
还没	-9.01738
软	-9.01836
建议你	-9.0188
激光	-9.01986
微	-9.01987
▁未	-9.02073
疤痕	-9.02388
说话	-9.02465
结核	-9.02472
O	-9.02593
肚子	-9.02622
几次	-9.0268
并且	-9.02691
房	-9.02772
找您	-9.02945
伤口	-9.02954
诊	-9.0301
只要	-9.03085
是否有	-9.03127
及时	-9.03245
周围	-9.03247
耳鸣	-9.03259
略	-9.0328
活	-9.03306
本	-9.03422
切	-9.03576
过来	-9.03579
断	-9.03725
入	-9.03778
r	-9.03858
层	-9.0396
还需要	-9.04103
大夫您好	-9.04176
都正常	-9.04237
腰椎	-9.04251
畸形	-9.04258
耳朵	-9.04261
醒	-9.04327
球	-9.04595
q	-9.04629
西药	-9.04643
k	-9.04699
容易	-9.04722
消	-9.04898
mg	-9.04951
信号	-9.04982
结石	-9.05039
分钟	-9.05071
还没有	-9.0518
长期	-9.05203
血液	-9.05257
针灸	-9.05271
保	-9.05395
牙齿	-9.05525
半个月	-9.05737
不到	-9.05832
多发	-9.06081
留	-9.06114
我在	-9.06126
胆囊	-9.0616
临床	-9.06275
没什么	-9.06279
仍	-9.06551
鼻炎	-9.06617
不太	-9.06757
肿瘤医院	-9.06769
阴	-9.06883
提示	-9.06998
泡	-9.07037
积液	-9.07043
进	-9.07046
帮我	-9.07148
空	-9.07374
医生说是	-9.07378
路	-9.07408
胀	-9.07568
上次	-9.07939
用了	-9.07944
蛋白	-9.08033
膀胱	-9.08105
麻烦	-9.08131
94	-9.08172
听力	-9.08313
真	-9.08331
血常规	-9.08374
93	-9.08439
慢慢	-9.08652
消失	-9.08777
七	-9.09085
▁1.	-9.09251
病毒	-9.09291
叫	-9.09437
淋巴	-9.09495
健康	-9.09766
易	-9.09828
难受	-9.09938
是否需要	-9.09942
电	-9.1002
听说	-9.1008
第二天	-9.10158
移植	-9.10184
由	-9.10361
里面	-9.10406
办法	-9.10424
良好	-9.10481
不了	-9.10533
下降	-9.10605
酶	-9.10751
都有	-9.10781
给予	-9.10806
没事	-9.10871
变化	-9.10962
中医院	-9.11052
的时间	-9.11096
越	-9.11188
明天	-9.11365
往	-9.11367
角	-9.11491
an	-9.11703
作用	-9.11715
非	-9.11792
副作用	-9.12082
难	-9.12316
块	-9.12513
▁你	-9.12538
挂号	-9.12556
减少	-9.1257
形	-9.12623
xu	-9.12789
年了	-9.12796
0.5	-9.12938
无力	-9.12954
肛门	-9.12966
慢	-9.131
内径	-9.13127
调理	-9.13191
明	-9.13253
▁上海交通大学医学院附属	-9.13468
除了	-9.1355
流产	-9.13731
网上	-9.13761
在家	-9.13845
造成	-9.1386
室	-9.13939
者	-9.13954
血小板	-9.14011
减	-9.14094
示	-9.14096
支	-9.14113
彻底	-9.14183
心电图	-9.14191
松	-9.14221
膝关节	-9.14236
比较好	-9.14258
回家	-9.14283
别	-9.14345
严重吗	-9.14346
该怎么办	-9.14363
法	-9.14406
上午	-9.1444
黑	-9.14588
不孕	-9.14611
详细	-9.14691
三次	-9.14767
远	-9.14911
有无	-9.15116
大学	-9.15294
未见明显	-9.15395
乐	-9.15435
锻炼	-9.1545
guo	-9.15528
分析	-9.15565
除	-9.15602
肌肉	-9.15667
血管瘤	-9.15669
波	-9.15735
曲	-9.15755
这么	-9.15858
存在	-9.15969
进一步	-9.16163
足	-9.16424
大夫说	-9.1646
系统	-9.16638
wu	-9.16857
使	-9.16875
海	-9.16914
宁	-9.16968
这个病	-9.17106
yong	-9.17125
!!	-9.17126
视	-9.17286
修复	-9.17366
两年	-9.17442
复诊	-9.17453
非常感谢	-9.17495
伴有	-9.17574
粘连	-9.17585
白带	-9.17638
就可以	-9.17747
机	-9.17799
▁小儿	-9.17888
急性	-9.18071
发热	-9.18086
不敢	-9.18153
普	-9.18205
立	-9.18282
近期	-9.18344
矫正	-9.18353
马	-9.18426
决定	-9.18635
腺	-9.18692
细	-9.18852
免疫	-9.18907
舒	-9.1891
积水	-9.18985
坚持	-9.18997
配	-9.19005
诊治	-9.19229
道	-9.19279
的检查	-9.19289
2009	-9.19322
红细胞	-9.1936
此次病情	-9.19367
腔	-9.19399
过了	-9.194
背	-9.19401
cheng	-9.19415
中心医院	-9.1948
林	-9.19529
核磁共振	-9.19538
必须	-9.19599
水肿	-9.19686
!!!	-9.19691
乳房	-9.19736
以及	-9.19747
胃镜	-9.19821
肉	-9.19926
食	-9.19932
选择	-9.19942
收录	-9.19956
磁共振	-9.20181
甲亢	-9.20191
一种	-9.2039
解	-9.20479
做个	-9.20481
不同	-9.20497
抽	-9.20712
附件	-9.20723
脸上	-9.2088
CDFI	-9.20891
最大	-9.20897
?2、	-9.20912
即可	-9.20941
都没有	-9.20943
到底	-9.21152
内分泌	-9.21189
百	-9.21207
shi	-9.21215
妇科	-9.21325
门	-9.21448
▁中国人民解放军总医院	-9.21475
应该是	-9.21579
位置	-9.21669
毛	-9.21809
yi	-9.21853
身	-9.21874
ming	-9.21908
天后	-9.22072
去了	-9.22076
吃中药	-9.22101
92	-9.22287
油	-9.22436
合	-9.22442
有问题	-9.22442
不行	-9.22459
穿刺	-9.22768
觉	-9.22848
在当地医院	-9.23037
提	-9.23067
湿疹	-9.23119
时候	-9.23158
feng	-9.2324
华	-9.23273
小儿	-9.23323
N	-9.23342
血流信号	-9.23359
U	-9.23369
程度	-9.23518
清楚	-9.23551
分泌物	-9.23637
头孢	-9.23652
我父亲	-9.23903
前列腺	-9.23925
合适	-9.23997
项	-9.24022
你们	-9.2421
紧张	-9.24364
患有	-9.24441
菌	-9.24506
增强	-9.24513
是否可以	-9.24536
9.	-9.24809
0.8	-9.24817
愈合	-9.24897
脱	-9.24977
结婚	-9.24989
穿	-9.25018
膝盖	-9.25138
风	-9.25157
方式	-9.25181
个月了	-9.25225
入院	-9.25382
还可以	-9.25394
子宫肌瘤	-9.25574
脾	-9.25581
靠	-9.25642
▁神经内科	-9.25689
一直在	-9.25709
心里	-9.25747
清晰	-9.25803
0.3	-9.25987
直	-9.26057
紧	-9.26182
dong	-9.26189
贴	-9.26247
复	-9.26274
厚	-9.26394
怀疑	-9.26557
结构	-9.26567
的药物	-9.26634
去医院检查	-9.26756
还能	-9.2676
上海	-9.26792
消炎药	-9.26801
he	-9.2681
结果是	-9.26912
帮忙	-9.2692
奶	-9.26923
排卵	-9.26957
方面	-9.27042
在医院	-9.27082
没有效果	-9.27227
意	-9.27262
近视	-9.27343
九	-9.27417
是什么原因	-9.27575
加号	-9.27617
说明	-9.2768
确诊为	-9.27767
不清楚	-9.27909
指导	-9.27926
调整	-9.28053
孩子的	-9.28068
病因	-9.281
阿	-9.28104
实	-9.28372
子宫内膜	-9.28415
核磁	-9.28435
状态	-9.28524
轻微	-9.28757
碘	-9.28761
得了	-9.28941
电话	-9.28963
1.0	-9.29277
卵巢	-9.2935
相关	-9.29357
我母亲	-9.29373
住院治疗	-9.29418
▁患者	-9.29422
史	-9.29702
过去	-9.29757
后遗症	-9.30084
提前	-9.30206
不想	-9.30265
接受	-9.30419
我还	-9.3044
胎	-9.30457
维	-9.30474
到了	-9.30511
宫颈糜烂	-9.30626
州	-9.30636
-1	-9.30789
内膜	-9.3089
失	-9.30947
小便	-9.30989
偏高	-9.31
▁今年	-9.31009
需要做	-9.31037
尖	-9.31069
车	-9.3126
极	-9.31266
突出	-9.31338
检查出	-9.31382
买	-9.31427
FT	-9.31428
病史	-9.31663
F	-9.31669
病灶	-9.31721
市人民医院	-9.31752
肺部	-9.31824
怎样治疗	-9.3184
无明显	-9.32012
要求	-9.3208
阴茎	-9.3219
介入	-9.32238
理	-9.32478
有一	-9.32703
增加	-9.32711
口腔	-9.32773
▁消化内科	-9.32779
无效	-9.32783
退	-9.328
初	-9.32818
小腿	-9.32964
音	-9.32966
斑	-9.33044
来看	-9.33053
的方法	-9.33086
种	-9.33091
效果不明显	-9.33208
少量	-9.33214
提供	-9.33242
山	-9.33274
很难	-9.33279
失眠	-9.33306
治疗过	-9.33313
▁没有	-9.33315
北京	-9.33372
哪些	-9.33397
水平	-9.33478
肿大	-9.33582
▁中医科	-9.33666
瓣	-9.33739
▁那	-9.33766
可以用	-9.33779
不是很	-9.33786
手指	-9.33821
头疼	-9.33829
遗传	-9.33999
是在	-9.34125
肝脏	-9.34275
几个	-9.34285
认为	-9.34344
肝功能	-9.34362
一片	-9.3437
采用	-9.34474
第二次	-9.34503
疗效	-9.34619
用过	-9.34719
涨	-9.34749
TSH	-9.34957
1.5	-9.35019
生育	-9.35062
老是	-9.35183
拍片	-9.35201
面部	-9.35244
安排	-9.35365
xin	-9.35419
倒	-9.35438
没有什么	-9.35467
成功	-9.35492
sheng	-9.3552
风险	-9.35619
·	-9.35728
求	-9.35758
石	-9.35779
不需要	-9.35854
马上	-9.36058
几年	-9.36104
天了	-9.36139
打针	-9.36284
不正常	-9.363
交	-9.36326
回答	-9.36431
第二	-9.36454
勃起	-9.365
效	-9.36532
星期	-9.36569
一定要	-9.36598
离	-9.36634
这几天	-9.36665
最后	-9.36732
痛苦	-9.36836
我就	-9.36945
宫	-9.37018
配合	-9.37086
没有问题	-9.37109
是怎么回事	-9.37113
抗生素	-9.37146
胸部	-9.37202
他们	-9.37237
zhao	-9.37302
多了	-9.3743
那里	-9.37537
几个月	-9.37588
lin	-9.37601
哮喘	-9.37784
床	-9.37803
肿瘤科	-9.37896
宽	-9.37948
下来	-9.38087
_6518	-9.3816
qing	-9.38167
密度	-9.38233
当天	-9.38265
就医	-9.3834
鼻涕	-9.38354
假	-9.3838
接	-9.38574
大腿	-9.38742
传	-9.38758
感谢	-9.38835
一定	-9.38903
的医院	-9.38991
腺体	-9.39006
wen	-9.39134
▁女	-9.3914
也可以	-9.39164
治疗方法	-9.39187
增厚	-9.3921
哭	-9.39289
附属	-9.39311
解答	-9.39761
bo	-9.39787
后再	-9.39809
满	-9.39812
红色	-9.39821
朋友	-9.39849
名	-9.39938
支架	-9.39959
的回复	-9.40114
稳定	-9.40151
首先	-9.40155
丁	-9.40166
体温	-9.4023
有可能	-9.40268
的医生	-9.40281
两侧	-9.40395
日在	-9.40427
糖	-9.40723
医师	-9.40765
身高	-9.40841
腹痛	-9.40863
▁耳鼻喉科	-9.41003
DNA	-9.41042
脓	-9.41043
晚上睡觉	-9.41147
干净	-9.41159
按摩	-9.41204
脖子	-9.41205
导	-9.41206
精液	-9.41226
祝	-9.4128
耳鼻咽喉头颈外科	-9.41287
血流	-9.41288
它	-9.41293
预防	-9.41354
骨头	-9.41359
汗	-9.41407
害怕	-9.41452
久	-9.41485
试	-9.41604
吃的	-9.4163
麻木	-9.41652
治疗吗	-9.41686
在当地	-9.41769
恶心	-9.41806
0.7	-9.41833
下肢	-9.41839
给您	-9.41941
告诉我	-9.41959
前几天	-9.41998
戴	-9.42156
当地	-9.42205
0.6	-9.42253
吃什么药	-9.42294
上面	-9.42329
zhou	-9.42335
腹泻	-9.42398
楼	-9.42466
是什么病	-9.42512
老师	-9.42542
zheng	-9.42629
下去	-9.42651
唇	-9.42689
再做	-9.42862
家人	-9.42892
适合	-9.42896
肺动脉	-9.43047
东	-9.43091
没问题	-9.43167
中度	-9.43201
关系	-9.43251
肿胀	-9.43294
周期	-9.43318
灵	-9.43389
表现	-9.43482
胆	-9.43519
凉	-9.43539
头部	-9.43596
,2011	-9.43611
38.	-9.4367
前列腺炎	-9.43768
白色	-9.43825
回来	-9.44161
hu	-9.44174
钙化	-9.4419
好吗	-9.44243
调	-9.44371
肺癌	-9.44535
中间	-9.44583
改	-9.44714
医院检查	-9.44785
37.	-9.44791
粘膜	-9.44888
挺	-9.449
输	-9.44999
HCG	-9.45041
边	-9.45129
现在已经	-9.45156
2008	-9.45156
检查一下	-9.45162
胸闷	-9.45209
能否找您看病	-9.45241
骨科	-9.45328
0.4	-9.45354
ma	-9.45358
二尖瓣	-9.45424
。2、	-9.45424
即	-9.45427
min	-9.45647
可以考虑	-9.45696
一起	-9.45706
给你	-9.45766
脑电图	-9.45973
李大夫	-9.45979
原来	-9.46022
证	-9.46027
意见	-9.46059
鼻塞	-9.46226
算	-9.46334
乳头	-9.46354
_6379	-9.46527
共	-9.46533
面诊	-9.46533
卡	-9.46591
doctor	-9.46681
食物	-9.46691
的可能	-9.46738
青	-9.46748
颜色	-9.46827
啦	-9.46833
发炎	-9.46844
越来越	-9.46875
MRI	-9.4692
任何	-9.46953
必要	-9.46988
体质	-9.47079
刺激	-9.47168
—	-9.47205
突	-9.47393
黄体酮	-9.4746
万分感谢	-9.47483
一个星期	-9.47534
想知道	-9.47551
有个	-9.4759
▁北京协和医院	-9.47613
红肿	-9.47637
1.2	-9.47645
内见	-9.47933
径	-9.47982
结合	-9.47984
▁男	-9.48017
救	-9.48045
比如	-9.48108
微创	-9.48126
溃疡	-9.48129
。2011	-9.48141
手术切除	-9.48219
医学中心	-9.4822
▁非常感谢	-9.48244
形成	-9.48273
还会	-9.4828
ping	-9.48575
元	-9.48767
都不	-9.48786
讲	-9.48799
便秘	-9.48815
就好了	-9.48816
想问一下	-9.48824
累	-9.48871
就不	-9.48884
先天性	-9.48937
妇	-9.48954
发展	-9.48974
费	-9.49044
的地方	-9.49064
摸	-9.49086
则	-9.49113
模糊	-9.49122
:1、	-9.49389
建议您	-9.49398
常规	-9.49501
我想问一下	-9.49522
维生素	-9.49528
会影响	-9.49672
主动脉	-9.49677
方便	-9.49748
第一	-9.49852
都没	-9.49911
弱	-9.49941
眼底	-9.49955
表	-9.49961
代	-9.5007
涂	-9.50092
暂时	-9.50191
嗓子	-9.5026
唑	-9.5033
肩	-9.50338
×	-9.50402
医院就诊	-9.50497
喉咙	-9.50501
外伤	-9.50532
感谢您	-9.50584
附	-9.50646
两周	-9.50654
超检查	-9.50677
▁北京儿童医院	-9.50818
孕酮	-9.50914
吃完	-9.50967
去看	-9.51082
为主	-9.5111
角膜	-9.51217
声音	-9.51487
周岁	-9.51596
反流	-9.51619
多次	-9.51663
妇幼保健院	-9.51713
综合	-9.51756
状况	-9.51756
zhi	-9.5178
支原体	-9.51853
象	-9.51874
开刀	-9.51935
lu	-9.52095
端	-9.52106
月初	-9.52194
较大	-9.52221
贫血	-9.52231
对于	-9.52252
待	-9.5227
烧	-9.52293
啥	-9.52388
采取	-9.52389
曾经	-9.52403
huang	-9.52467
疙瘩	-9.52527
地方	-9.52606
输尿管	-9.52623
ct	-9.52656
吸	-9.52684
母亲	-9.52732
斜视	-9.52762
罗	-9.52796
颗	-9.52822
sun	-9.52898
底	-9.52954
▁目前	-9.52988
jing	-9.53111
刚开始	-9.53112
剂量	-9.53124
下面	-9.53267
长了	-9.53267
很少	-9.53314
尚	-9.53458
就有	-9.53547
范围	-9.53627
估计	-9.53634
查了	-9.53657
我妈妈	-9.53689
望	-9.53806
喷	-9.53826
也会	-9.53832
维持	-9.53886
左室	-9.53891
身上	-9.53911
月底	-9.53933
室间隔	-9.53946
推荐	-9.53973
包块	-9.53991
灶	-9.54062
2.5	-9.54087
来了	-9.54118
三尖瓣	-9.54132
盆腔	-9.54165
条	-9.54189
的东西	-9.54215
传染	-9.54229
升高	-9.54488
行走	-9.54515
这种病	-9.54541
专科	-9.54594
孔	-9.54741
固定	-9.54779
钱	-9.54958
压力	-9.54972
开的	-9.55019
因为我	-9.55119
不上	-9.55126
避免	-9.55157
重度	-9.55274
的中药	-9.55287
天左右	-9.55319
_6348	-9.55331
洛	-9.55399
影像	-9.55407
祝您	-9.55483
能做	-9.55586
如果不	-9.55651
探及	-9.55675
逐渐	-9.55746
字	-9.55827
痊愈	-9.55922
肌瘤	-9.55936
营养	-9.55967
▁希望	-9.55977
谢谢了	-9.55999
因素	-9.56005
脂	-9.56006
核	-9.56048
yuan	-9.5606
饭	-9.5616
斤	-9.56254
0.2	-9.5627
要做	-9.5637
zhong	-9.56413
(-)	-9.56672
检	-9.56678
风湿	-9.56802
▁从	-9.56852
别人	-9.57032
tao	-9.57048
气管	-9.57072
鼻窦炎	-9.5709
韧带	-9.5713
粉	-9.57178
治疗后	-9.57214
bin	-9.57324
_6471	-9.57341
我女儿	-9.57395
手术吗	-9.57496
已有	-9.57566
们	-9.57614
擦	-9.57652
岁了	-9.57744
萎缩	-9.57842
我也	-9.57916
36.	-9.57921
妈妈	-9.57944
你可以	-9.57961
第一医院	-9.58039
左边	-9.58055
窦	-9.58135
稀	-9.58174
生长	-9.5819
条件	-9.58358
脉	-9.58539
尿常规	-9.58678
静	-9.59037
早期	-9.59064
张大夫	-9.59071
散	-9.59279
下一步	-9.59328
请问我	-9.59406
--	-9.59486
新华医院	-9.59504
出诊	-9.59551
危险	-9.59563
???	-9.59677
妊娠	-9.59679
栓	-9.59789
做完	-9.59817
包括	-9.59854
去做	-9.5989
心情	-9.59949
同仁医院	-9.60019
钠	-9.60025
元旦	-9.60036
差不多	-9.6014
左腿	-9.60231
食管	-9.60334
腰部	-9.60383
直肠	-9.60383
皮肤科	-9.60393
盐酸	-9.60487
2-3	-9.60558
虚	-9.60628
肯定	-9.60669
神	-9.60697
达到	-9.60707
缩	-9.60738
ying	-9.60744
破	-9.60766
lei	-9.60845
光滑	-9.60905
周一	-9.60982
正在	-9.61013
▁男科	-9.61015
肺结核	-9.6109
性生活	-9.61094
正规	-9.61101
喘	-9.61165
自然	-9.61236
大医院	-9.61293
zhu	-9.61357
多年	-9.6138
一月	-9.61475
...	-9.61479
顶	-9.61506
每日	-9.6153
糜烂	-9.61542
脊柱	-9.61558
升	-9.6161
18.	-9.61684
可否	-9.61706
心率	-9.61747
HPV	-9.61748
个多月	-9.61781
龙	-9.6193
肝硬化	-9.62043
0.9	-9.62088
哪种	-9.62127
120	-9.62225
5-	-9.62542
jin	-9.62574
左乳	-9.62583
▁孩子	-9.62593
养	-9.62609
有一个	-9.62727
却	-9.62745
找到	-9.62772
哪个	-9.62824
以前身体状况良好	-9.62965
_6477	-9.62994
山东	-9.63019
_6513	-9.63046
隐	-9.63091
湿	-9.63191
粗	-9.63193
联	-9.63199
障碍	-9.63226
有影响	-9.63273
冬天	-9.63384
动手术	-9.63445
hai	-9.63496
表面	-9.63562
甲减	-9.63644
试试	-9.63688
以下	-9.63719
全部	-9.63762
夜	-9.63826
参	-9.63907
200	-9.63924
就没	-9.63934
右边	-9.64005
死	-9.64057
包皮	-9.6412
实在	-9.64123
▁内分泌科	-9.64178
囊性	-9.6427
制	-9.64433
舌	-9.64448
明确诊断	-9.64458
有过	-9.64495
0.0	-9.64503
在北京	-9.64524
良性	-9.64592
大的	-9.64612
反	-9.64649
监测	-9.64697
几乎	-9.64698
麻烦您	-9.64752
送	-9.64781
之间	-9.64841
刀	-9.64901
异	-9.64961
项目	-9.65057
稍微	-9.65104
目	-9.65158
▁我想	-9.65281
尿道	-9.65358
我会	-9.65395
17.	-9.65455
酒	-9.65596
进一步检查	-9.65694
_6514	-9.65759
氏	-9.65829
这样的情况	-9.65856
带孩子	-9.65942
写	-9.65946
_6517	-9.66226
▁我是	-9.66317
吃点	-9.66347
停止	-9.66434
味	-9.66569
er	-9.66696
治疗的	-9.66717
:1.	-9.66769
胀痛	-9.66806
另	-9.66816
超声提示	-9.66819
步	-9.67031
_6475	-9.67043
边缘	-9.67061
然	-9.67089
紫	-9.67101
女儿	-9.67113
?2.	-9.67205
胡	-9.67256
_6390	-9.67265
引流	-9.67287
什么样的	-9.67351
复方	-9.67634
乏力	-9.67644
您看	-9.67688
您能否给一些治疗建议	-9.67699
程	-9.67714
不清	-9.67741
不明显	-9.6779
有痰	-9.67827
界	-9.67976
后背	-9.67978
扁桃体	-9.67992
要是	-9.67999
太大	-9.68038
效果不好	-9.6817
该怎么治疗	-9.68201
德	-9.68318
冠心病	-9.68322
_6376	-9.68327
头发	-9.68373
公	-9.68394
斜	-9.68449
的建议	-9.6848
▁宝宝	-9.68503
干燥	-9.6881
甲功	-9.68826
zh	-9.6887
▁曾经	-9.69012
定期	-9.69107
贝	-9.69184
婴儿	-9.69207
长大	-9.6923
指点	-9.69374
薄	-9.69384
支气管炎	-9.69397
按照	-9.69438
春节	-9.69501
确认	-9.69519
验	-9.69545
liang	-9.69549
jie	-9.69598
恶性	-9.69617
嘴	-9.6965
后又	-9.69667
胰	-9.69762
定期复查	-9.69843
我该怎么办	-9.69884
主	-9.69938
en	-9.69946
单位	-9.69988
一个多月	-9.70175
199	-9.70195
微创手术	-9.70233
我这	-9.70277
给孩子	-9.70492
右腿	-9.70569
闭	-9.70589
还在	-9.70625
塞	-9.70735
都会	-9.70748
晚期	-9.70819
想问问	-9.70827
深圳	-9.70846
性的	-9.70892
站	-9.70932
痘痘	-9.70981
黄色	-9.70986
必要时	-9.71023
其中	-9.71119
131	-9.71143
看的	-9.7117
不痛	-9.71175
去过	-9.71215
武汉	-9.71302
口服液	-9.71311
16.	-9.71317
多大	-9.71402
治疗建议	-9.71422
又开始	-9.71447
导管	-9.71453
副	-9.71454
尔	-9.71462
西医	-9.7168
拔	-9.71707
消化	-9.71717
综合症	-9.71733
理疗	-9.71796
普通	-9.71799
黄疸	-9.71876
_6224	-9.71883
乳腺癌	-9.71916
弱视	-9.71941
老人	-9.71946
咽	-9.71978
要看	-9.71981
先天性心脏病	-9.72019
ji	-9.72058
心血管内科	-9.72187
19.	-9.72226
抽血	-9.72238
有所	-9.72244
骨髓	-9.72312
特别是	-9.72329
有多大	-9.72434
速	-9.72521
优	-9.72579
xiang	-9.72596
当地医院	-9.7263
▁山东省立医院	-9.72687
频繁	-9.72701
39.	-9.72887
低回声	-9.72991
第九人民医院	-9.72992
仅	-9.73171
眼球	-9.73171
积	-9.73198
十天	-9.73233
肝功	-9.73242
正常吗	-9.73276
电话咨询	-9.73285
个疗程	-9.73324
ng	-9.7333
重新	-9.73379
现在是	-9.73532
长时间	-9.73556
有影响吗	-9.7365
专业	-9.73705
父亲	-9.73731
浓	-9.73768
椎体	-9.73939
流血	-9.7408
非常感谢您	-9.741
膏	-9.74101
尽量	-9.74129
西京医院	-9.7422
县医院	-9.74225
如下	-9.74229
坏	-9.74294
术前	-9.7432
更好	-9.74336
手脚	-9.7436
。12	-9.74425
希望能	-9.74446
验血	-9.74527
染色体	-9.74627
情	-9.74653
你们医院	-9.74654
无异常	-9.74695
口腔医院	-9.74704
心跳	-9.7471
都说	-9.74745
疗程	-9.74831
jiang	-9.74836
_6393	-9.7484
补充	-9.74846
我儿子	-9.74852
江	-9.74905
单纯	-9.74945
fang	-9.75149
正常值	-9.7526
髋关节	-9.75374
我妈	-9.75387
要不要	-9.75422
上述	-9.75445
软组织	-9.75488
后壁	-9.75498
再去	-9.75506
医疗	-9.75546
忙	-9.75557
流鼻涕	-9.75574
这两天	-9.75637
谢谢您了	-9.75672
_6552	-9.75696
_6467	-9.75698
帮	-9.7573
病科	-9.75854
信	-9.75857
沙	-9.76001
晕	-9.76087
感到	-9.76119
150	-9.76129
神经内科	-9.76168
中药治疗	-9.76174
温	-9.76195
仍然	-9.762
出汗	-9.76214
促	-9.76359
收	-9.76378
▁普外科	-9.76618
贵	-9.76719
▁我想知道	-9.76744
▁需要	-9.76806
右乳	-9.76816
最佳	-9.76833
答复	-9.76946
支气管	-9.77024
准	-9.77076
血脂	-9.77137
北京大学第三医院	-9.77143
sh	-9.77151
图	-9.7728
焦虑	-9.77281
有必要	-9.77406
用手	-9.77412
今	-9.77531
弯曲	-9.77589
外用	-9.77637
点滴	-9.7768
检验	-9.77703
没有任何	-9.77709
▁没有治疗过	-9.77882
吸收	-9.77889
报告单	-9.77943
好多	-9.77973
了很多	-9.77984
500	-9.7818
宫腔镜	-9.78227
乱	-9.78304
毒	-9.78318
多谢	-9.78345
_6544	-9.78412
中药调理	-9.78428
去检查	-9.78458
这边	-9.78624
一直没有	-9.78638
延	-9.78658
基	-9.78676
那些	-9.78744
出院后	-9.7882
了吗	-9.78933
找我	-9.78963
钙	-9.78972
肾病	-9.78984
▁不知道	-9.78997
当然	-9.79029
月经不调	-9.79069
是否能	-9.79074
▁乳腺	-9.7919
左肾	-9.79282
建议做	-9.79317
找你	-9.79359
南京	-9.79363
部战区总医院	-9.79395
_6472	-9.79421
请问您	-9.79583
王大夫	-9.79591
0-1	-9.79675
肾炎	-9.79688
很严重	-9.79741
优甲乐	-9.79753
缘	-9.7979
着急	-9.7984
火	-9.79912
颈椎病	-9.79919
类似	-9.79931
返流	-9.7997
堵	-9.80032
压迫	-9.80035
胳膊	-9.8004
自行	-9.80159
整	-9.80223
个人	-9.80239
抬	-9.80254
较好	-9.80323
▁以前	-9.80344
游离	-9.80359
300	-9.80443
这个月	-9.80524
就没有	-9.8053
眼皮	-9.80722
确实	-9.80801
白内障	-9.80813
_6516	-9.80833
人流	-9.80868
CD	-9.8091
过一次	-9.81085
所见	-9.81112
请教	-9.81177
新生儿	-9.81255
-2	-9.81367
肿物	-9.81458
宫外孕	-9.81473
转氨酶	-9.81473
_6349	-9.81479
缺	-9.81516
脂肪	-9.81566
CA	-9.81584
内侧	-9.8166
博	-9.81692
视网膜	-9.81697
具体情况	-9.81764
不一定	-9.81815
痔疮	-9.81829
su	-9.81898
的病	-9.8192
1_	-9.81933
的结果	-9.82006
草	-9.82018
bao	-9.82031
翻	-9.82075
同房	-9.82101
止	-9.82105
脑部	-9.82187
再说	-9.82202
血清	-9.82242
男性	-9.82247
是否是	-9.82267
酸痛	-9.82341
两种	-9.8241
35.	-9.82435
豆	-9.82444
酮	-9.82453
通畅	-9.82472
▁生殖医学中心	-9.82477
(+)	-9.82502
han	-9.82505
贵院	-9.82536
27.	-9.82539
板	-9.8257
▁2010	-9.82571
必	-9.82596
托	-9.82687
唐	-9.827
我这种情况	-9.82715
我院	-9.8282
何	-9.82888
不一样	-9.82954
想要	-9.82976
亚	-9.83035
额	-9.83083
替	-9.83118
yun	-9.83119
痣	-9.8314
加强	-9.83147
的可能性	-9.83198
医院做	-9.83217
牙龈	-9.83263
疹	-9.83385
提高	-9.83395
恢复正常	-9.83418
如果有	-9.83441
48.	-9.83516
索	-9.8358
经验	-9.83608
谢谢你	-9.83614
式	-9.83689
防	-9.83759
行吗	-9.83771
泰	-9.83821
喉	-9.83833
人工	-9.83908
ai	-9.83963
儿童	-9.84018
手淫	-9.84051
28.	-9.84158
甚至	-9.84188
右手	-9.84247
应用	-9.84359
胺	-9.8438
您能	-9.84524
话	-9.84576
临	-9.84605
占位	-9.84623
眼科	-9.84638
产生	-9.84707
脊髓	-9.84732
_6334	-9.84743
就开始	-9.84753
半月	-9.84843
整个	-9.84879
我已经	-9.84982
21.	-9.85002
鼓	-9.85059
▁山东大学齐鲁医院	-9.85082
尽早	-9.8511
是多少	-9.85174
诺	-9.85191
淡	-9.8527
鲜	-9.85304
漏	-9.85308
超过	-9.85389
艾	-9.85408
58.	-9.85428
器	-9.8552
介绍	-9.85539
zy	-9.85646
乳腺增生	-9.85687
胶	-9.85753
弄	-9.85764
次数	-9.85816
二十	-9.85846
眼压	-9.85872
▁口腔科	-9.85883
检查过	-9.85933
切除手术	-9.85968
<	-9.85991
还好	-9.85994
浅	-9.86012
准确	-9.86048
29.	-9.86052
医科大学	-9.86096
大脑	-9.86103
分布	-9.86112
特殊	-9.8612
不好意思	-9.8615
腋下	-9.86223
中成药	-9.86373
岁时	-9.86374
帮帮我	-9.8642
专家门诊	-9.86518
1.7	-9.86519
mei	-9.86532
岁半	-9.86718
还有就是	-9.86734
留下	-9.86766
曾在	-9.86806
小腹	-9.86909
qi	-9.86921
阴道炎	-9.86925
儿科	-9.86952
药膏	-9.86956
每年	-9.86973
氧	-9.87066
山东中医药大学附属医院	-9.87169
超显示	-9.87203
可不可以	-9.87249
您说	-9.87287
的回答	-9.87302
响	-9.8732
到医院检查	-9.87328
市第一人民医院	-9.87405
▁东	-9.87442
哪里	-9.87613
一块	-9.87693
不规则	-9.87737
K	-9.87816
情绪	-9.8786
很担心	-9.87894
虽然	-9.87981
胃肠	-9.88047
33.	-9.88109
跳	-9.88126
的病情	-9.88132
57.	-9.88146
▁最近	-9.88164
安全	-9.8818
疗	-9.88207
进行治疗	-9.88308
这里	-9.8832
缺损	-9.88416
的人	-9.88422
旁	-9.88444
抽搐	-9.88463
rong	-9.88468
说我	-9.88517
夫	-9.88573
增高	-9.8867
肾脏	-9.88671
随访	-9.88696
事情	-9.887
发现有	-9.88734
缓	-9.88768
宝	-9.88803
疝气	-9.88845
龟头	-9.88931
厚度	-9.8896
上下	-9.88968
沉	-9.88998
没什么效果	-9.89021
组	-9.89047
堵塞	-9.8913
很小	-9.89135
附属医院	-9.89199
散光	-9.8921
都可以	-9.89213
排便	-9.89215
敏	-9.89215
干扰素	-9.89295
早晨	-9.89304
请医生	-9.89383
阴囊	-9.89438
外侧	-9.8945
实质	-9.8945
那我	-9.89604
针对	-9.89684
chang	-9.89793
好点	-9.89846
测试	-9.89867
那种	-9.8989
眼镜	-9.89896
1-	-9.89911
没效果	-9.89925
可以先	-9.89939
取出	-9.90068
喜欢	-9.90132
想咨询	-9.90147
个小时	-9.90214
思	-9.90227
筋	-9.90232
开药	-9.90284
▁整形外科	-9.90345
介入治疗	-9.90361
看下	-9.90411
右肾	-9.90451
习惯	-9.9062
41.	-9.90648
32.	-9.90653
团	-9.90698
1.1	-9.90721
31.	-9.90753
肥大	-9.90782
他的	-9.90817
了一下	-9.90901
肠镜	-9.90917
内可见	-9.90933
qiang	-9.90952
结论	-9.91082
什么原因	-9.91107
▁复旦大学附属华山医院	-9.91112
123	-9.91139
zhen	-9.91145
巴	-9.91151
外阴	-9.91153
肛	-9.91161
我今年	-9.91225
▁武汉协和医院	-9.91234
心慌	-9.91256
内部	-9.91282
液体	-9.91332
辅助	-9.9134
是正常的	-9.9136
不疼	-9.91392
一点点	-9.91393
医治	-9.91396
格	-9.91408
高烧	-9.91453
67.	-9.91467
过敏性鼻炎	-9.91483
腹腔	-9.91523
个月后	-9.91545
显	-9.91548
一直没	-9.91565
会诊	-9.9157
瘦	-9.91586
关节炎	-9.9159
流出	-9.91616
▁本人	-9.91669
注	-9.91809
学习	-9.91833
所有	-9.91835
太多	-9.91848
不错	-9.91865
家里	-9.91874
停了	-9.91878
增多	-9.91953
颌	-9.9196
不出来	-9.91976
双眼	-9.92025
不影响	-9.92035
末	-9.92035
刚刚	-9.92075
自己的	-9.92082
87.	-9.9211
参考	-9.92115
本来	-9.92154
家长	-9.92211
疗法	-9.92292
疑	-9.92305
34.	-9.92325
在百忙之中	-9.9236
市中医院	-9.92386
大夫你好	-9.92406
瑞	-9.92454
早泄	-9.92463
v	-9.92473
给他	-9.92542
47.	-9.92547
班	-9.9268
心脏病	-9.92728
尽	-9.92739
卵	-9.92796
强化	-9.92803
22.	-9.92809
天前	-9.92857
医生开了	-9.92898
双眼皮	-9.92902
我去	-9.92924
?3、	-9.92972
顺	-9.93037
125	-9.93066
美容	-9.93087
脸部	-9.931
关于	-9.931
大量	-9.93134
扎	-9.93161
怀疑是	-9.93208
些什么	-9.93225
0.1	-9.93227
》	-9.9332
并发症	-9.9334
98.	-9.93363
。2.	-9.93365
或是	-9.93405
保持	-9.93454
▁空军军医大学	-9.93455
_6555	-9.93493
现在在	-9.93522
胆管	-9.93528
什么时间	-9.93541
切除术	-9.93558
什么的	-9.93578
▁能否	-9.93604
齿	-9.93627
就可以了	-9.93722
卵巢囊肿	-9.93723
检查后	-9.93744
基因	-9.93747
尿频	-9.93772
后面	-9.93777
敬	-9.93829
_6375	-9.93834
椎	-9.93865
眼角	-9.93867
四个月	-9.9388
胃炎	-9.93893
会出现	-9.93912
抓	-9.93939
变成	-9.93939
卫生	-9.94087
四天	-9.9412
就要	-9.94304
治疗效果	-9.94315
49.	-9.94335
杨	-9.94363
想问下	-9.94369
意识	-9.94445
59.	-9.94466
78.	-9.94504
不育	-9.94508
股骨	-9.94532
平均	-9.94702
三年	-9.94758
拍了	-9.94759
男孩	-9.94823
▁中国中医科学院	-9.94837
▁皮肤性病科	-9.94837
此病	-9.94849
23.	-9.94862
77.	-9.94914
烦	-9.94942
肝癌	-9.94946
腺样体肥大	-9.94965
致	-9.95033
去北京	-9.95033
腹腔镜	-9.95065
▁先天性	-9.95109
毛病	-9.95111
直径	-9.95118
▁可能是	-9.95118
什么病	-9.95158
窝	-9.95209
68.	-9.95274
简单	-9.95313
分别	-9.95336
军	-9.95339
标准	-9.95349
纤维	-9.95538
不多	-9.95542
贵医院	-9.95566
88.	-9.95601
之类的	-9.95602
国	-9.95609
二院	-9.95649
胆结石	-9.95653
结束	-9.95664
重庆	-9.95739
已经有	-9.95762
去复查	-9.95799
一切正常	-9.95933
训练	-9.95964
接触	-9.95982
细菌	-9.95992
丙	-9.96031
1.3	-9.96107
位于	-9.96107
中午	-9.9613
迟	-9.96222
在上海	-9.96244
2012	-9.96245
什么药	-9.96257
犯	-9.96283
规律	-9.96293
台	-9.96355
每天都	-9.96395
的手术	-9.96443
左耳	-9.96534
敏感	-9.96553
该如何治疗	-9.96559
1-2	-9.96594
充血	-9.96599
的效果	-9.966
跑	-9.96605
多个	-9.96614
不必	-9.96616
试验	-9.96623
兴	-9.96667
做什么检查	-9.96711
摔	-9.96718
分流	-9.96734
空腹	-9.96761
伸	-9.96859
fu	-9.96921
强回声	-9.96993
的治疗方案	-9.97062
消除	-9.97148
如果没有	-9.97175
in	-9.97224
需不需要	-9.97253
髓	-9.97338
骶	-9.97381
城	-9.97392
第三	-9.97395
经期	-9.97519
恩	-9.97527
喝了	-9.97558
助	-9.97584
产	-9.97641
网站	-9.97676
46.	-9.97778
雷	-9.97783
fan	-9.97847
距	-9.9789
疤	-9.97916
女性	-9.97978
常见	-9.98003
分离	-9.98006
一年多	-9.98117
含	-9.98136
推	-9.9815
露	-9.98172
建议到	-9.98173
呼吸科	-9.98248
有好转	-9.98298
42.	-9.98353
07.	-9.98354
等等	-9.98406
复杂	-9.9841
▁上海市	-9.9844
大连	-9.98448
▁耳鼻咽喉科	-9.98459
月在	-9.98485
我这个	-9.98519
李	-9.98564
铁	-9.98568
上个月	-9.98576
四肢	-9.98622
降低	-9.98649
布	-9.98661
现已	-9.98705
瓣膜	-9.98706
xue	-9.98746
我觉得	-9.98756
左手	-9.9879
臂	-9.98825
福	-9.98837
打算	-9.98896
不够	-9.98948
shan	-9.98958
44.	-9.98986
缝	-9.99086
谢	-9.99088
核医学科	-9.99105
言	-9.99171
整形	-9.99195
▁儿童	-9.99216
故	-9.99219
脱落	-9.99237
可以吃	-9.99311
腹股沟	-9.99343
胰岛素	-9.99497
血栓	-9.99527
停用	-9.99555
hao	-9.9957
40.	-9.99646
这病	-9.99662
天天	-9.9968
母	-9.99737
告知	-9.99762
peng	-9.99763
来我院	-9.9977
43.	-9.99825
胸片	-9.99882
室间隔缺损	-9.99891
荨麻疹	-9.99895
技术	-9.99896
过后	-9.99922
51.	-9.99935
较多	-9.99979
霉素	-9.99984
吃东西	-9.99995
扩大	-10
】	-10.0002
多少钱	-10.002
康复科	-10.0022
);	-10.0026
也就是	-10.0031
浆	-10.0036
好些	-10.0036
您的回复	-10.0038
2.0	-10.0039
53.	-10.0041
冰	-10.0043
智力	-10.0043
公分	-10.0062
北	-10.0069
【	-10.0069
石膏	-10.0084
1.8	-10.0085
血红蛋白	-10.0095
泌乳素	-10.0096
文	-10.0096
中耳炎	-10.0096
不出	-10.0098
shu	-10.0101
病历	-10.0102
粘	-10.0103
品	-10.0103
造成的	-10.0107
——	-10.0111
3.5	-10.0113
140	-10.0114
08.	-10.0114
想咨询一下	-10.0118
第二医院	-10.0119
灰	-10.0121
玩	-10.0122
莫	-10.0123
45.	-10.0124
肾功能	-10.0129
想问	-10.0145
97.	-10.0147
切面	-10.0152
71.	-10.0156
射	-10.0166
周二	-10.0167
增宽	-10.0168
73.	-10.0171
▁曾	-10.0171
痤疮	-10.0178
很快	-10.0181
市妇幼保健院	-10.0188
52.	-10.019
▁江苏省中医院	-10.0191
腹胀	-10.0194
用的	-10.0195
的孩子	-10.0198
个半月	-10.0201
餐	-10.0201
999	-10.0204
30.	-10.0204
脑出血	-10.0209
病例	-10.021
劲	-10.0211
xing	-10.0212
查过	-10.0219
89.	-10.0221
胰腺	-10.0222
尤其是	-10.0228
该如何	-10.0228
完整	-10.0233
可以治疗	-10.0233
56.	-10.0238
椎间盘	-10.024
正确	-10.0248
来医院	-10.0251
怀	-10.0253
淋巴细胞	-10.0269
76.	-10.0275
前后	-10.028
双肾	-10.028
食欲	-10.0281
千	-10.0286
主动脉瓣	-10.0289
▁未治疗	-10.0294
频	-10.0294
血管外科	-10.0295
每周	-10.03
放心	-10.0311
▁肝胆外科	-10.0314
意思	-10.0319
6469	-10.0321
都在	-10.0323
还是有	-10.0324
痉挛	-10.0324
大吗	-10.0325
69.	-10.034
类型	-10.0349
上有	-10.036
有一点	-10.0366
综合征	-10.037
我想知道	-10.0376
知	-10.0377
又有	-10.0386
需要手术	-10.0389
基本上	-10.0394
_6380	-10.0395
的情况下	-10.0401
周边	-10.0403
我家宝宝	-10.0409
医院治疗	-10.0411
我看	-10.0414
tian	-10.0421
60.	-10.0424
北京大学第一医院	-10.0425
欢迎	-10.0425
低回声结节	-10.0425
歪	-10.0438
就诊医院	-10.0439
果	-10.0448
换药	-10.045
寒	-10.0451
IU	-10.0451
第三天	-10.0453
个月前	-10.0455
欠	-10.0455
主任您好	-10.0456
颅	-10.0459
心内科	-10.046
64.	-10.046
体积	-10.0462
小时候	-10.0465
等待	-10.0467
受伤	-10.0475
儿子	-10.0477
61.	-10.0479
纹	-10.048
用力	-10.0491
80.	-10.0492
弯	-10.0497
有可能是	-10.0497
错	-10.0506
84.	-10.0509
右耳	-10.0511
方面的	-10.0515
尿蛋白	-10.0516
延长	-10.0516
一样的	-10.0518
我想问下	-10.0522
心脏彩超	-10.0524
该怎么	-10.0532
其余	-10.0539
真是	-10.0539
边界清	-10.0541
宫腔	-10.0541
完成	-10.0543
医院做了	-10.0545
血丝	-10.0549
夏天	-10.0549
胖	-10.055
96.	-10.055
阻	-10.0551
拉肚子	-10.0556
腹水	-10.0562
尾	-10.0563
66.	-10.0565
doc	-10.0573
脑积水	-10.0576
请问医生	-10.0578
不怎么	-10.058
父母	-10.0586
以为是	-10.0587
▁谢谢大夫	-10.0587
000	-10.0589
老年	-10.0592
1.4	-10.0607
86.	-10.0607
置	-10.0608
红点	-10.0612
on	-10.0613
xi	-10.0616
的治疗方法	-10.0617
亲	-10.0618
李医生	-10.0623
95.	-10.0624
79.	-10.0631
记	-10.0634
甘	-10.0634
鸡	-10.0639
周五	-10.0641
周三	-10.0642
92.	-10.0642
泪	-10.0646
汤	-10.0649
81.	-10.065
chun	-10.065
又去	-10.065
健	-10.0659
圆	-10.0661
抑郁症	-10.0662
对孩子	-10.0669
怎样才能	-10.0672
一侧	-10.0675
▁上海中医药大学附属	-10.0678
抑郁	-10.0678
不见好转	-10.0681
肌层	-10.0685
例假	-10.0691
就能	-10.0692
腰痛	-10.0692
眼药水	-10.0694
普通内科	-10.0695
血沉	-10.0698
治疗好	-10.0699
得过	-10.0705
心肌	-10.0706
北京安贞医院	-10.0709
夜间	-10.0714
放射	-10.0718
醇	-10.072
也不知道	-10.072
注意些什么	-10.0726
评估	-10.0735
一颗	-10.0736
怎么回事	-10.0746
生物	-10.0753
93.	-10.0756
抗病毒	-10.0764
反而	-10.0764
加上	-10.0769
前天	-10.0771
去找您	-10.0772
94.	-10.0774
用什么药	-10.0775
出生时	-10.0778
83.	-10.0779
85.	-10.0781
低烧	-10.0783
联合	-10.0792
否则	-10.0793
_6515	-10.0798
多发性	-10.0802
song	-10.0807
告诉	-10.0819
▁肝病科	-10.0822
摘除	-10.0825
▁哦	-10.0827
一个月后	-10.083
那样	-10.0832
紊乱	-10.0832
查一下	-10.0834
腰疼	-10.0841
套	-10.0843
女孩	-10.0847
400	-10.085
***	-10.0851
一粒	-10.0856
2000	-10.0857
一个月前	-10.0863
痘	-10.0864
呼	-10.0878
医学	-10.0879
合并	-10.0887
丝	-10.0892
市中心医院	-10.0901
霉菌	-10.0909
夏	-10.0909
70.	-10.091
相对	-10.0914
做检查	-10.0921
闷	-10.0921
性质	-10.0925
鼻腔	-10.0927
上的	-10.093
毫克	-10.0936
▁上海儿童医学中心	-10.0938
总医院	-10.0939
有轻微	-10.0943
奶粉	-10.0944
护	-10.0947
不全	-10.0949
峰	-10.0951
嘛	-10.0952
硬化	-10.0954
所致	-10.0955
long	-10.096
开的药	-10.0965
有没有什么	-10.097
1.6	-10.0978
瘢痕	-10.0981
家医院	-10.0981
氯	-10.0981
给出	-10.0989
的现象	-10.0992
MR	-10.0999
图片	-10.1001
脑室	-10.1008
王	-10.1009
倍	-10.1011
不吃	-10.1015
观	-10.1019
门诊就诊	-10.1022
顺利	-10.1026
毫米	-10.1026
▁胸外科	-10.1027
工	-10.1028
不知道是不是	-10.1029
。3、	-10.1032
进行了	-10.1035
也很	-10.1037
脱发	-10.1038
坏死	-10.1042
身体状况	-10.1045
止血	-10.1049
偏低	-10.1052
枚	-10.1054
随	-10.1062
憋	-10.1063
不严重	-10.1063
舌头	-10.1065
落	-10.1069
我很	-10.1078
扫	-10.1083
笑	-10.1084
冠	-10.1084
声带	-10.1085
移	-10.1088
附近	-10.1096
ling	-10.1097
皮肤病	-10.11
右脚	-10.1105
62.	-10.1106
82.	-10.1109
还是要	-10.1109
依	-10.1112
我们医院	-10.1113
因此	-10.1118
恳请	-10.1122
99.	-10.1126
▁北京	-10.1126
72.	-10.1127
检查了	-10.113
偶	-10.1131
软骨	-10.1132
黄斑	-10.1137
疱疹	-10.1145
有效果	-10.1154
屁股	-10.1155
间隔	-10.1156
肝胆	-10.1159
>	-10.1159
_6378	-10.116
盖	-10.1167
我想问	-10.1167
不太好	-10.117
这是怎么回事	-10.1171
278	-10.1171
禁	-10.1174
安徽	-10.1174
措施	-10.1175
打过	-10.1178
一周后	-10.1183
cui	-10.119
嘴唇	-10.1206
市医院	-10.1208
半夜	-10.1215
不良	-10.1218
置换	-10.1223
出现了	-10.1227
65.	-10.1229
暗	-10.1231
qiu	-10.1237
十二指肠	-10.1237
怀孕了	-10.1246
2005	-10.1247
▁谢谢医生	-10.1252
下次	-10.1256
▁小儿外科	-10.1258
机会	-10.1259
增	-10.1263
成都	-10.1264
纳	-10.1264
粘液	-10.1268
后方	-10.127
在网上	-10.1275
来门诊	-10.1276
益	-10.128
冲	-10.1291
畅	-10.1294
磨	-10.1294
适当	-10.1297
房室	-10.13
配了	-10.1302
导致的	-10.1303
50.	-10.1308
发红	-10.1309
少许	-10.1311
▁没有治疗	-10.1312
的片子	-10.1317
检查吗	-10.1321
时有	-10.1324
没有明显	-10.1327
个星期	-10.1328
想做	-10.1329
▁乳腺外科	-10.133
90.	-10.1331
91.	-10.1332
55.	-10.134
香	-10.134
定量	-10.1345
五天	-10.1347
密	-10.1349
做试管	-10.1353
160	-10.1356
友	-10.1356
▁您能否给一些治疗建议	-10.1364
W	-10.1368
耐心	-10.1376
身体健康	-10.1377
各种	-10.1381
做手术吗	-10.1383
刘大夫	-10.1385
一附属医院	-10.1387
背部	-10.1391
接着	-10.1392
650	-10.1396
3-4	-10.1401
颞	-10.1401
是否要	-10.1404
痛经	-10.1408
结肠	-10.1411
2011-12-	-10.1415
系	-10.1418
其实	-10.1423
后期	-10.1425
结果为	-10.1428
\	-10.1432
但是我	-10.1436
190	-10.1436
天气	-10.1442
2007	-10.1443
前后径	-10.1444
尼	-10.1447
好呢	-10.1447
菜	-10.1447
调节	-10.1451
年轻	-10.1456
咽喉	-10.1457
74.	-10.1457
老公	-10.1459
断裂	-10.1465
75.	-10.1465
其他的	-10.1473
透	-10.1474
根本	-10.1477
TCT	-10.1483
胸口	-10.1483
垂体	-10.1489
均正常	-10.149
强的松	-10.1494
▁江苏省人民医院	-10.1495
头皮	-10.1506
谢谢医生	-10.1508
09.	-10.151
浮肿	-10.151
重要	-10.1525
da	-10.1527
放假	-10.1531
应该怎么办	-10.1531
大了	-10.1534
征	-10.1536
▁生殖中心	-10.1548
敷	-10.155
多天	-10.1552
褐色	-10.1556
扩	-10.1556
软膏	-10.1558
书	-10.157
效果好	-10.1578
哈	-10.1581
可能会	-10.1584
云	-10.1587
至于	-10.1588
找您看病	-10.159
本身	-10.159
尚可	-10.1592
县	-10.1596
办	-10.1601
阵	-10.1609
胃部	-10.1612
▁请问医生	-10.1612
《	-10.1618
▁肛肠科	-10.1619
骨质	-10.162
54.	-10.1625
还未	-10.1627
诊疗中心	-10.1637
据	-10.1637
一年前	-10.1638
抗原	-10.164
▁谢谢你	-10.1648
的患者	-10.1648
想请教	-10.1651
yao	-10.1654
月份开始	-10.1655
双乳	-10.1662
药量	-10.1676
肌酐	-10.1681
阿奇霉素	-10.1681
误	-10.1683
问一下	-10.1692
扫描	-10.17
烧伤	-10.1701
麻烦您了	-10.1704
我感觉	-10.1708
源	-10.171
甲状腺功能	-10.1713
一星期	-10.1719
去除	-10.1719
抱歉	-10.1729
可行	-10.1731
▁精神科	-10.1737
苏	-10.1738
等到	-10.1744
斯	-10.1745
珠	-10.1745
于是	-10.1745
电脑	-10.1749
计	-10.1751
问题不大	-10.1754
哭闹	-10.1761
检查报告	-10.1761
腰椎间盘突出	-10.1762
眼睑	-10.1764
谢谢大夫	-10.1766
春	-10.1768
食道	-10.1777
婚	-10.178
根部	-10.1781
股	-10.179
320	-10.1793
挤	-10.1806
▁去年	-10.1808
做的手术	-10.1816
苏州	-10.1818
红斑	-10.1823
宣武医院	-10.1825
胃窦	-10.183
腺癌	-10.1831
任	-10.1839
有关系	-10.184
入睡	-10.184
沈阳	-10.1841
确	-10.1841
在贵院	-10.1852
淋	-10.1856
肺动脉瓣	-10.1856
属	-10.1861
否	-10.1862
受压	-10.1865
广州	-10.1866
肾盂	-10.1866
右室	-10.1869
一直都	-10.1877
西苑医院	-10.1889
天津	-10.1892
4-5	-10.1894
医生您好	-10.1898
潜血	-10.1899
羊水	-10.19
虫	-10.1903
瓶	-10.1904
哑	-10.1905
▁产科	-10.1905
患儿	-10.1908
我爸	-10.1909
盒	-10.1909
碰	-10.1914
掉了	-10.1919
过程	-10.192
06.	-10.1923
成功率	-10.1924
急诊	-10.1927
600	-10.1928
更好的	-10.1931
面积	-10.1932
▁天津市	-10.1932
除外	-10.1935
可以不	-10.1936
月中旬	-10.1937
郑州	-10.1937
_6225	-10.1938
以来	-10.1943
痛感	-10.1948
眼科医院	-10.1951
赛	-10.1952
癌细胞	-10.1953
秦	-10.1953
下方	-10.196
杭州	-10.196
guang	-10.1961
能力	-10.1962
身体状况良好	-10.1967
冲洗	-10.1987
在百忙中	-10.1996
长的	-10.1998
浑身	-10.2001
▁感谢	-10.2001
来就诊	-10.2006
似	-10.2014
切口	-10.2016
平扫	-10.2018
尖锐湿疣	-10.2018
叫我	-10.2021
具	-10.2028
超声检查	-10.2029
赶	-10.2034
他说	-10.2035
站立	-10.2036
片状	-10.2038
第一附属医院	-10.2038
十二	-10.2044
氨	-10.2047
医学院	-10.2053
pan	-10.2057
左房	-10.2065
咬	-10.2066
宫内	-10.2066
集	-10.2067
阿司匹林	-10.2067
阴道镜	-10.2068
某	-10.2083
消退	-10.2086
网	-10.209
试管	-10.2093
腋窝	-10.2099
眩晕	-10.21
▁解放军总医院第	-10.21
硬块	-10.2105
肾积水	-10.2113
没有其他	-10.2114
浸润	-10.2115
梦	-10.2117
有很多	-10.2124
4.5	-10.2129
百忙之中	-10.2132
▁上海交通大学医学院附属仁济医院	-10.2134
申请	-10.2139
胎心	-10.2142
?3.	-10.2145
愿	-10.2149
还有点	-10.2149
进食	-10.2149
耽误	-10.2149
上皮	-10.2149
缝合	-10.2151
时发现	-10.2151
饭后	-10.2152
陈大夫	-10.2155
出生后	-10.2158
结果如下	-10.2161
疮	-10.2162
03.	-10.2164
摄	-10.2166
枕	-10.2166
黑色	-10.2167
点状	-10.2177
拖	-10.2182
要注意	-10.2189
是因为	-10.2195
您说的	-10.22
带上	-10.2201
发育不良	-10.2202
直到	-10.2209
白蛋白	-10.2211
▁风湿免疫科	-10.222
▁中日友好医院	-10.2221
咨询一下	-10.2223
您可以	-10.2224
疝	-10.2229
毫升	-10.2232
63.	-10.2232
中国	-10.2238
转院	-10.2244
手术的话	-10.2257
180	-10.2257
我老公	-10.2263
中医治疗	-10.2265
新年快乐	-10.2265
成熟	-10.2267
......	-10.2267
的诊断	-10.2267
患病	-10.2271
损	-10.2283
打嗝	-10.2283
2.8	-10.2285
du	-10.2292
当面	-10.2294
我家	-10.2296
化验结果	-10.2298
脂肪肝	-10.2298
独	-10.2298
看见	-10.2303
04.	-10.2304
限	-10.2311
肚	-10.2311
生殖	-10.2316
▁首都医科大学	-10.2316
大部分	-10.2327
氟	-10.2332
割	-10.2333
预	-10.2333
以便	-10.2342
jia	-10.2343
胸膜	-10.2344
yue	-10.2348
130	-10.2356
黄体	-10.2359
衰	-10.236
造	-10.2361
继续吃	-10.2364
供	-10.2365
病理诊断	-10.2366
一小	-10.2368
西安	-10.2372
周六	-10.2376
查体	-10.2376
变形	-10.2379
挂了	-10.238
qin	-10.238
束	-10.2381
培养	-10.2382
挺好	-10.2382
有什么办法	-10.2383
回复我	-10.2385
现在还	-10.2388
种药	-10.2393
效果不佳	-10.2397
呼吸困难	-10.2406
我的门诊	-10.2407
生化	-10.2408
免疫力	-10.241
阻塞	-10.2412
陈	-10.2418
的厉害	-10.2423
医生给	-10.2424
不再	-10.2429
内分泌科	-10.2434
意义	-10.2434
▁上海交通大学医学院附属瑞金医院	-10.2435
骨质增生	-10.2436
妇幼	-10.2437
血尿	-10.2438
淋巴结肿大	-10.2439
这个药	-10.2441
起床	-10.2445
排出	-10.245
自愈	-10.2451
信息	-10.2452
le	-10.2452
停药后	-10.2457
现在又	-10.2479
股骨头	-10.2479
都要	-10.248
理解	-10.2483
好好	-10.2485
肋骨	-10.249
刺痛	-10.2492
帮我看看	-10.2495
关	-10.2496
暖	-10.2502
病房	-10.2503
我不知道	-10.2508
▁我今年	-10.251
喝水	-10.2513
隐痛	-10.2516
丰富	-10.2519
三甲医院	-10.252
困	-10.2532
▁请问大夫	-10.2532
星	-10.2533
请问一下	-10.2535
02.	-10.2541
170	-10.2549
代谢	-10.2551
兰	-10.2554
月经量	-10.2556
的办法	-10.256
劳	-10.2568
似的	-10.2574
泌尿外科	-10.2574
胃病	-10.2576
左脚	-10.2582
病症	-10.2584
好大夫	-10.2585
我想问问	-10.2587
省人民医院	-10.259
许	-10.2596
生理	-10.2597
要孩子	-10.2605
损害	-10.2608
脑梗塞	-10.2612
何时	-10.2615
激光治疗	-10.2615
醒来	-10.2617
以为	-10.2623
想得到	-10.2624
份	-10.2628
文章	-10.2634
吃什么	-10.2638
读	-10.2639
零	-10.264
里有	-10.2641
小于	-10.2643
片和	-10.2647
上方	-10.2664
腺瘤	-10.2665
反复发作	-10.2671
不足	-10.2674
保胎	-10.2674
喝酒	-10.2678
胃癌	-10.2679
发麻	-10.2679
增粗	-10.269
会不会是	-10.2692
手臂	-10.2693
半年前	-10.2696
肤	-10.27
不方便	-10.2701
肢体	-10.2704
中医医院	-10.2705
水泡	-10.2707
睾酮	-10.271
携带	-10.2711
孙	-10.2712
胃镜检查	-10.2713
对称	-10.2714
做什么	-10.2718
防止	-10.2719
滑	-10.2721
李主任	-10.273
谷丙转氨酶	-10.2744
请大夫	-10.2744
尊	-10.2745
血块	-10.2755
收缩	-10.2756
希望您能	-10.2759
络	-10.2761
不通	-10.2761
开放	-10.2769
教	-10.277
息	-10.2773
05.	-10.2775
业	-10.2779
缺血	-10.2784
一会	-10.2784
尿酸	-10.279
在此	-10.2792
性激素	-10.2792
请你	-10.2793
适	-10.2794
到底是	-10.2795
鱼	-10.2797
复旦大学附属妇产科医院	-10.2798
月经周期	-10.2799
耳鼻喉科	-10.2799
一边	-10.2803
我都	-10.2821
脑干	-10.2821
两年前	-10.2831
张医生	-10.2831
II	-10.2831
仔细	-10.2832
到门诊	-10.2839
多囊	-10.2842
fa	-10.2843
对症	-10.2845
符合	-10.285
阴影	-10.2853
产后	-10.2854
脚趾	-10.2857
ch	-10.2865
刺	-10.287
北京天坛医院	-10.2873
一阵	-10.2878
我又	-10.2883
筛查	-10.2889
xia	-10.2896
下垂	-10.2898
肠胃	-10.29
一切	-10.2907
难以	-10.291
回去	-10.2915
全面	-10.2919
诊断是	-10.292
上火	-10.2938
有什么影响	-10.2943
耳聋	-10.2943
床位	-10.2945
肝病	-10.2956
丹	-10.2956
先心病	-10.2959
清宫	-10.296
能否给一些治疗建议	-10.2962
住了	-10.2963
过程中	-10.2965
给我开了	-10.2971
ML	-10.2972
很着急	-10.2972
2006	-10.2974
测定	-10.2986
尿检	-10.2987
预后	-10.2987
比以前	-10.2992
植入	-10.2992
青霉素	-10.2993
又出现	-10.2995
gu	-10.2999
相信	-10.3001
第一人民医院	-10.3004
您给	-10.301
剧烈	-10.301
飞	-10.3011
腿部	-10.3011
`	-10.3011
齐	-10.3023
建	-10.3025
PR	-10.3025
不见	-10.3025
夹	-10.3029
去您那	-10.303
可能性大	-10.3044
半月板	-10.3046
前段时间	-10.3048
牵引	-10.3048
阶段	-10.3048
苦	-10.3054
就去	-10.3054
ye	-10.3055
免疫组化	-10.3064
生命	-10.3065
脑血管	-10.3067
闭合	-10.307
山东省	-10.307
检查出来	-10.3073
化验单	-10.3075
请问大夫	-10.3079
创伤	-10.3087
正常人	-10.3088
对胎儿	-10.309
能治好吗	-10.3094
肋	-10.3096
皮下	-10.3098
大三阳	-10.31
为了	-10.31
付	-10.3102
疲劳	-10.3102
至少	-10.3104
lian	-10.3106
才好	-10.3109
育	-10.3112
严重的	-10.3113
mmHg	-10.3116
郑	-10.312
疑似	-10.3121
偶有	-10.3133
宜	-10.3134
济南	-10.3134
对身体	-10.3135
洁	-10.3138
车祸	-10.3138
进入	-10.3142
一直有	-10.3143
触	-10.3145
梗阻	-10.315
平常	-10.3156
搞	-10.3156
房颤	-10.3157
拆线	-10.3159
像是	-10.316
形态正常	-10.3163
建议先	-10.3163
内膜厚	-10.3164
十分	-10.3174
月经来	-10.3174
腺样体	-10.3174
降到	-10.3176
降压药	-10.3184
▁谢谢您的回复	-10.3185
固	-10.3189
糊	-10.3192
报	-10.3192
三个	-10.3192
de	-10.3193
撞	-10.3193
gao	-10.3194
就行	-10.3199
山西省	-10.3201
上学	-10.3209
芬	-10.321
奥	-10.3211
df	-10.3212
即使	-10.3219
十一	-10.3223
蓝	-10.3228
"	-10.323
推拿	-10.3231
本月	-10.3244
雌二醇	-10.3248
下巴	-10.3251
腔内	-10.3257
800	-10.3263
ke	-10.3271
恢复的	-10.3271
建议我	-10.3274
做胃镜	-10.3277
静脉曲张	-10.3287
钾	-10.3303
呼吸道	-10.3308
tang	-10.3309
不起	-10.3317
先天	-10.3317
装	-10.332
shen	-10.3325
够	-10.3325
不高	-10.3326
隆	-10.3338
握	-10.334
暂	-10.3341
月开始	-10.3342
医生说我	-10.3343
手术前	-10.3346
1.9	-10.3348
个多月了	-10.335
两边	-10.335
去医院看	-10.3351
运	-10.3355
但还是	-10.336
昏迷	-10.3361
膝	-10.3362
快乐	-10.3362
听到	-10.3366
眼部	-10.3373
肠道	-10.3377
青光眼	-10.3378
肝炎	-10.3392
有关系吗	-10.3393
医生让	-10.3394
早搏	-10.3397
烫伤	-10.3398
一院	-10.3399
继发	-10.3399
省立医院	-10.3407
不明	-10.3411
雾化	-10.3413
动作	-10.3413
拍的	-10.3417
依然	-10.3418
辽宁中医药大学附属医院	-10.3418
医保	-10.342
件	-10.3432
无回声	-10.3433
银	-10.3434
你说的	-10.3437
的影响	-10.3438
消肿	-10.3441
其内	-10.3443
纤维瘤	-10.3446
恐	-10.3453
母乳	-10.3455
立即	-10.3455
我自己	-10.3455
2.3	-10.3456
相应	-10.3461
一直吃	-10.3464
扭	-10.3469
建议手术	-10.3479
保肝	-10.3485
充	-10.3489
患者的	-10.3489
睡着	-10.349
锌	-10.349
印象	-10.3491
计划	-10.3491
价格	-10.3491
论	-10.3496
聚	-10.3505
民	-10.3505
务	-10.3509
家庭	-10.3511
骨龄	-10.3512
止痛	-10.3513
需要住院	-10.3513
质量	-10.3514
变大	-10.3515
医院看过	-10.3521
见效	-10.3526
见一	-10.3527
*10	-10.3529
咽炎	-10.3532
抑制	-10.3534
全切	-10.3537
迷	-10.3546
拜	-10.3547
韩	-10.3548
肽	-10.3548
有时会	-10.3548
ren	-10.3548
能恢复	-10.3549
吃奶	-10.3556
4-	-10.3557
热敷	-10.3569
应该怎么治疗	-10.3574
CIN	-10.3585
基底	-10.3586
gang	-10.3588
能吃	-10.359
的帮助	-10.3591
也正常	-10.3594
那天	-10.3597
很疼	-10.3597
晨	-10.3601
僵硬	-10.3605
▁呼吸内科	-10.3605
真的很	-10.3616
有炎症	-10.3621
对症治疗	-10.3623
梅毒	-10.3624
拆	-10.3641
一个疗程	-10.3642
扩散	-10.3644
度数	-10.3646
止咳	-10.3659
陷	-10.3661
缩小	-10.3661
参考范围	-10.3662
包膜	-10.367
我知道	-10.3675
不懂	-10.368
河南省	-10.3682
我们这	-10.3687
出了	-10.3688
比较大	-10.369
镇	-10.3693
秒	-10.3699
可见一	-10.3715
心理科	-10.3721
月份在	-10.373
许多	-10.373
消化科	-10.3732
外地	-10.3732
是否会	-10.3737
休	-10.3738
夜里	-10.3739
失败	-10.3739
▁普通外科	-10.374
盆腔炎	-10.3741
2.6	-10.3743
左叶	-10.3747
标	-10.3748
屈	-10.3756
我今天	-10.3756
轮廓	-10.3757
高压氧	-10.3759
我们这里	-10.3759
作为	-10.3765
肝内	-10.3769
排尿	-10.3776
教授您好	-10.3778
肖	-10.3778
的文章	-10.3786
髌骨	-10.3791
2.2	-10.3792
舒服	-10.3794
正规医院	-10.3795
看东西	-10.3795
记得	-10.3796
继续服用	-10.3796
附睾	-10.3796
胸科医院	-10.3798
房间隔缺损	-10.3799
哪家医院	-10.38
愈	-10.3805
周四	-10.3807
巨	-10.3816
战	-10.3817
哦	-10.3829
切开	-10.383
很痛	-10.3831
横	-10.3833
每月	-10.3835
杆菌	-10.3836
绝	-10.3836
特色医学中心	-10.3836
给她	-10.3841
注射液	-10.3843
上周	-10.3844
会引起	-10.3844
中西医结合医院	-10.3845
过度	-10.3851
解释	-10.3857
甲状腺结节	-10.3857
门牙	-10.3859
时间长	-10.3862
全麻	-10.3863
左向右分流	-10.3875
指甲	-10.3875
可以通过	-10.3877
语言	-10.3883
给开了	-10.3888
前壁	-10.389
川	-10.3892
速度	-10.3898
ER	-10.3904
基本正常	-10.391
清醒	-10.3911
疣	-10.3915
垫	-10.3915
类风湿	-10.3916
打喷嚏	-10.3916
hou	-10.3918
百忙中	-10.3923
广东省	-10.3925
内镜	-10.3928
到医院就诊	-10.3933
头颅	-10.3938
也可	-10.394
爸爸	-10.3942
喂	-10.3947
~~	-10.3953
苷	-10.3953
有时间	-10.3955
述	-10.3956
转阴	-10.3956
过敏原	-10.3958
男科	-10.3958
不见好	-10.3963
团块	-10.3965
谈	-10.3974
这段时间	-10.3974
医大	-10.3975
推迟	-10.3975
来看看	-10.3984
全家	-10.3991
有所好转	-10.3998
麻醉	-10.3998
伤害	-10.401
害	-10.401
韦	-10.4014
根据你的	-10.4014
任何治疗	-10.4015
间隙	-10.4019
大学附属第一医院	-10.4028
减低	-10.4033
抱	-10.4033
等症状	-10.4037
坐诊	-10.404
肾结石	-10.4042
今天去	-10.4042
高压	-10.4043
做了手术	-10.4051
酯	-10.4054
尝试	-10.4054
很高	-10.4054
透明	-10.4054
高危	-10.406
5%	-10.4066
考	-10.4071
孩子现在	-10.4073
我应该	-10.4073
引发	-10.4077
严重了	-10.4078
nj	-10.4086
亲自	-10.4089
实性	-10.4089
吉	-10.4093
用不用	-10.4094
病理报告	-10.4094
出来了	-10.4094
好像是	-10.4096
luo	-10.4099
来院	-10.41
▁是的	-10.4101
臭	-10.411
赵	-10.4111
这个情况	-10.4111
印	-10.4113
突发	-10.4124
王医生	-10.4126
我怕	-10.4144
我爸爸	-10.4146
+++	-10.4148
很厉害	-10.4154
大于	-10.4156
变性	-10.4161
会不会影响	-10.4164
间断	-10.4167
胆囊炎	-10.417
放化疗	-10.4172
没办法	-10.4173
不停	-10.4173
小孩子	-10.4177
盘	-10.4183
锁骨	-10.4185
协和医院	-10.4193
01.	-10.4194
房间隔	-10.4194
肺动脉高压	-10.4196
次方	-10.4202
胸腔	-10.4205
一个月了	-10.4214
隐血	-10.4215
cao	-10.4217
hy	-10.422
均匀	-10.4222
明白	-10.4227
后果	-10.4231
注意什么	-10.4233
半片	-10.4239
暂时不	-10.4245
3.0	-10.4247
不建议	-10.4248
风湿科	-10.4249
抹	-10.4255
郑州大学第一附属医院	-10.4256
就诊于	-10.4257
消瘦	-10.4258
一岁	-10.4259
详细的	-10.4264
先做	-10.4269
盐水	-10.427
积极	-10.4274
妇产医院	-10.4277
保健	-10.428
新的	-10.4288
2.4	-10.4289
多囊卵巢	-10.429
是否正常	-10.4294
乡	-10.4296
▁上海市儿童医院	-10.43
无效果	-10.4304
臀部	-10.4312
没做	-10.4315
态	-10.4316
前两天	-10.4324
带着	-10.4327
好多了	-10.433
---	-10.4334
yin	-10.4336
朱	-10.4338
输了	-10.4338
希望得到	-10.4342
用中药	-10.4355
胆固醇	-10.4357
不稳	-10.436
心室	-10.4368
xie	-10.4369
好一点	-10.4373
祝好	-10.4374
婴	-10.4375
滴眼液	-10.4379
上海市东方医院	-10.4379
gui	-10.4382
减量	-10.4392
用什么	-10.4396
接下来	-10.4402
肿痛	-10.4403
看中医	-10.4403
▁中西医结合	-10.4405
祝你	-10.4407
前列腺液	-10.4417
谁	-10.442
ALT	-10.4421
完了	-10.4422
早上起来	-10.4425
↑	-10.4428
密度影	-10.4436
来说	-10.4439
疫苗	-10.4439
zeng	-10.4441
河南省中医院	-10.4443
脊椎	-10.4443
比较严重	-10.4444
光点	-10.445
腰酸	-10.4469
就像	-10.4474
久了	-10.4478
徐	-10.4481
球蛋白	-10.4486
王主任	-10.4486
有点疼	-10.4487
区别	-10.4487
超声所见	-10.4488
受损	-10.4492
骨转移	-10.4493
就好	-10.4494
光片	-10.4495
目前在	-10.4499
生长激素	-10.4499
免疫球蛋白	-10.4504
十分感谢	-10.4504
交流	-10.4508
家属	-10.4509
我想请问	-10.451
颅内	-10.452
中央	-10.4526
满意	-10.4526
试孕	-10.4528
右卵巢	-10.453
尤其	-10.4531
张主任	-10.4531
胚胎	-10.4534
心血管外科	-10.4536
病毒性	-10.4539
一般是	-10.4542
杂	-10.4543
充盈	-10.4543
初步	-10.4552
说要	-10.456
色素	-10.4562
++	-10.4564
本地	-10.4566
湘雅	-10.4566
另一	-10.4567
穿孔	-10.4569
双肺	-10.4574
ly	-10.4576
有什么好的	-10.458
命	-10.458
的答复	-10.4581
诊所	-10.4584
恶化	-10.4588
到时	-10.4588
的几率	-10.459
面瘫	-10.459
lan	-10.4591
处有	-10.4596
个月时	-10.4598
妥	-10.4608
排卵期	-10.4621
的事	-10.4622
肌电图	-10.4629
喜	-10.4629
俩	-10.4629
射精	-10.463
公斤	-10.4631
▁提问	-10.4637
大小便	-10.4637
不断	-10.4639
性病	-10.464
想去	-10.465
智齿	-10.4651
协和	-10.4652
我的情况	-10.4656
查血	-10.4658
散在	-10.4659
我该	-10.4663
长出	-10.4665
饿	-10.4671
肾上腺	-10.4671
▁脊柱外科	-10.4673
guan	-10.4685
一位	-10.469
减退	-10.4696
真菌	-10.4697
1000	-10.4699
周后	-10.4699
效果很好	-10.47
3.4	-10.47
封闭	-10.4701
给个	-10.4703
混合	-10.4705
胎盘	-10.4713
做了个	-10.4713
碱	-10.4713
痕	-10.4714
时好时坏	-10.4714
评价	-10.4715
她的	-10.4716
泪道	-10.4716
感觉到	-10.4718
葡萄糖	-10.4718
一开始	-10.4718
胸椎	-10.4718
。3.	-10.4722
额头	-10.4722
引	-10.4728
武警	-10.4736
现在孩子	-10.4736
典型	-10.4737
间质	-10.4742
腹腔镜手术	-10.4745
多数	-10.4746
相关检查	-10.4747
又做了	-10.4748
田	-10.4757
家族	-10.4759
想咨询下	-10.4762
不是很好	-10.4771
仁	-10.4777
反反复复	-10.4778
日开始	-10.4786
染	-10.4796
北京中医医院	-10.4798
过敏性	-10.4803
第三次	-10.4805
没有办法	-10.4809
手腕	-10.4816
受限	-10.4818
最好是	-10.4819
混	-10.482
肚脐	-10.4822
结膜炎	-10.4822
股骨头坏死	-10.4823
尿液	-10.4843
护理	-10.4845
大小正常	-10.485
散瞳	-10.4857
您的门诊	-10.4857
很害怕	-10.4859
坦	-10.4864
陆	-10.4865
下颌	-10.4866
距离	-10.4866
有高血压	-10.4867
流速	-10.487
到我院	-10.4871
还用	-10.4871
想了解	-10.4874
丙肝	-10.4876
庆	-10.4884
卧	-10.4886
是什么意思	-10.4895
理想	-10.49
年初	-10.4906
才可以	-10.4908
附院	-10.4914
保留	-10.4917
还需	-10.4933
挂水	-10.4935
做一个	-10.4942
增长	-10.4944
ge	-10.4945
或者是	-10.495
上网	-10.4953
南方医科大学南方医院	-10.4954
保证	-10.4955
买了	-10.4958
到北京	-10.496
气短	-10.4963
你的情况	-10.4964
慎	-10.4974
胆汁	-10.4975
右叶	-10.4975
进行手术	-10.4976
输卵管造影	-10.498
好象	-10.498
比较多	-10.498
HP	-10.4981
处于	-10.4984
仍有	-10.4985
避孕	-10.4986
乙肝病毒	-10.4988
冬	-10.4991
很难受	-10.4994
应该怎么	-10.4995
哈尔滨	-10.4996
一年了	-10.4997
原发性	-10.5008
不住	-10.5014
奇	-10.5017
呆	-10.5018
小脑	-10.502
劳累	-10.5021
那就	-10.5027
3.6	-10.5028
感冒了	-10.5033
吞咽	-10.504
毕竟	-10.504
红霉素	-10.5044
体检发现	-10.5045
这方面的	-10.5049
进去	-10.5051
过几天	-10.5054
心胸外科	-10.5059
部队	-10.5063
带来	-10.5065
3.8	-10.5065
2.7	-10.5067
梁	-10.5072
3+	-10.5074
刮	-10.508
的意见	-10.5082
可是我	-10.5083
桂	-10.5084
不均匀	-10.5085
▁南京医科大学附属	-10.5085
您能否给	-10.5089
保护	-10.509
学校	-10.5094
继续观察	-10.5096
残	-10.5102
眼眶	-10.5103
支持	-10.5106
的副作用	-10.5106
怎么治	-10.5111
坠	-10.5115
做过一次	-10.5116
下周	-10.5119
伴随	-10.5127
回声均匀	-10.5128
精索静脉曲张	-10.5128
辨	-10.5129
北京大学人民医院	-10.5129
迹象	-10.5129
移位	-10.5132
bi	-10.5135
陈医生	-10.5135
血肿	-10.5139
抗病毒治疗	-10.5141
就感觉	-10.5142
做哪些检查	-10.5144
才会	-10.5147
乘	-10.5151
随着	-10.516
再复查	-10.5164
能治好	-10.5167
放射性	-10.5172
发病时	-10.5173
弹	-10.519
不知道是	-10.5192
湖	-10.5194
瘘	-10.5195
未发现	-10.5197
更加	-10.5198
睡觉时	-10.5205
通常	-10.5209
通气	-10.5212
游	-10.5216
顿	-10.5217
价	-10.5218
世	-10.5218
潘	-10.5218
处方	-10.5218
黏膜	-10.5219
修补	-10.522
例	-10.522
打呼噜	-10.5221
受孕	-10.5222
淋巴瘤	-10.5226
做一次	-10.5233
无需	-10.5234
神经科	-10.5235
每次都	-10.5238
3.1	-10.5242
双侧乳腺	-10.5242
带血	-10.5248
刘	-10.525
查查	-10.5255
轴	-10.5261
咱	-10.5263
fei	-10.5263
缺氧	-10.5264
shao	-10.5265
四次	-10.5265
左肺	-10.5265
餐后	-10.5268
就诊过	-10.5286
更严重	-10.5286
洗澡	-10.5286
bing	-10.5288
再决定	-10.529
收缩期	-10.529
2+	-10.53
个小	-10.5301
咯	-10.5308
第三医院	-10.5317
沟通	-10.5323
请上传	-10.5325
退烧	-10.5337
脑梗	-10.534
早点	-10.5344
熟	-10.5351
亮	-10.5352
阿莫西林	-10.5354
浦	-10.5354
上升	-10.5356
给我们	-10.5357
可以治愈	-10.5363
是一种	-10.5363
诊疗	-10.537
何种	-10.5373
烟	-10.5373
小三阳	-10.5375
纵隔	-10.5376
四五	-10.5378
肥厚	-10.5399
医学科	-10.5399
白血病	-10.54
表示	-10.5402
计数	-10.5412
牛	-10.5416
行为	-10.5417
无任何	-10.5422
钉	-10.5445
呵呵	-10.5445
二次	-10.5446
▁针灸科	-10.5447
扭伤	-10.5447
疼痛难忍	-10.5448
破裂	-10.5448
脱位	-10.5453
请咨询	-10.5455
点多	-10.5456
超结果	-10.5459
修	-10.5462
检查发现	-10.5469
灌肠	-10.5469
费用是多少	-10.5474
不管	-10.5477
液化	-10.549
要小孩	-10.5491
体检时	-10.5504
睡不着	-10.5512
惊	-10.5513
xian	-10.5517
凸	-10.5517
怀上	-10.5518
中山	-10.552
市立医院	-10.552
癌症	-10.5525
年开始	-10.5525
前面	-10.5526
术中	-10.5526
写的	-10.553
疼痛感	-10.5532
很明显	-10.5536
杀	-10.5537
费用多少	-10.5542
不放心	-10.5547
看看吧	-10.5547
是什么情况	-10.5554
钼靶	-10.5559
Y	-10.556
衣原体	-10.556
居	-10.5561
做试管婴儿	-10.5564
也不好	-10.5566
正常范围	-10.5569
没法	-10.557
隆起	-10.5571
干咳	-10.5572
浅表性胃炎	-10.5582
彩超检查	-10.5582
开口	-10.5585
3.2	-10.5587
请求	-10.5588
杨大夫	-10.5593
▁医生您好	-10.5594
这是什么病	-10.5598
拿到	-10.5602
合理	-10.5605
仙	-10.5607
～	-10.5607
湖南中医药大学第一附属医院	-10.5607
肿大淋巴结	-10.5609
确诊是	-10.5625
如果可以	-10.5625
液性暗区	-10.5628
未孕	-10.5629
潮	-10.5629
月经第	-10.5629
冠状动脉	-10.563
戒	-10.563
强直性脊柱炎	-10.563
肌腱	-10.5631
晶体	-10.5632
到贵院	-10.5638
闭经	-10.564
大人	-10.5657
体内	-10.5664
激	-10.5667
腮腺	-10.5671
最后一次	-10.5674
有限	-10.5674
脾脏	-10.5675
了好多	-10.5676
贲门	-10.5677
似乎	-10.5677
纠结	-10.5677
的样子	-10.5677
凹陷	-10.5677
ya	-10.5678
进口	-10.5687
量少	-10.5688
怕冷	-10.5689
汀	-10.5695
实验	-10.5701
这么多	-10.5705
谢谢您的回复	-10.5708
也不是	-10.571
癌变	-10.5712
所以我	-10.5715
的解答	-10.5717
吊	-10.5717
弓	-10.572
净	-10.5722
后来就	-10.5724
永	-10.5725
滑膜炎	-10.5725
六个月	-10.5733
梗	-10.5736
打点滴	-10.5736
遗	-10.5746
▁北京积水潭医院	-10.5748
伸直	-10.575
掌	-10.5752
你院	-10.576
岁左右	-10.576
大小为	-10.577
方向	-10.5773
孕妇	-10.5777
让他	-10.5786
知觉	-10.5789
七天	-10.579
无其他	-10.579
硫	-10.5792
这个问题	-10.5796
胆总管	-10.5796
艾滋病	-10.5798
盆腔积液	-10.5798
影像学	-10.5799
盼	-10.5808
拇指	-10.581
您的号	-10.5813
蹲	-10.5824
不做手术	-10.583
在意	-10.583
第一天	-10.5834
胆红素	-10.5839
断断续续	-10.5843
动态	-10.5846
要怎么	-10.5851
一条	-10.5853
请问这	-10.5861
居中	-10.5864
萎缩性胃炎	-10.5866
三周	-10.5876
请专家	-10.5878
5.0	-10.5882
快速	-10.5882
有一定	-10.5883
半年后	-10.5883
终	-10.5886
专科医院	-10.5888
医嘱	-10.5891
斑块	-10.5895
镜下	-10.59
你说	-10.5902
很痒	-10.5909
髋	-10.5909
ou	-10.591
安定	-10.5911
学生	-10.5911
检查结果是	-10.5912
看起来	-10.5913
多普勒	-10.5913
洞	-10.5914
胎停	-10.592
不管用	-10.5925
危	-10.5932
没见	-10.5934
耐药	-10.5937
双腿	-10.5938
池	-10.5939
没有关系	-10.5939
银屑病	-10.5939
码	-10.594
▁中国医学科学院阜外医院	-10.594
记忆力	-10.594
打鼾	-10.5941
2.1	-10.5941
▁没治疗过	-10.5941
自从	-10.5945
从小	-10.5946
越来越严重	-10.595
没有好转	-10.5954
的表现	-10.5959
安医院	-10.5959
是不是要	-10.596
吓	-10.5963
主治医生	-10.5964
乳膏	-10.5976
瘫	-10.5979
麻烦你	-10.598
同样	-10.5982
圆形	-10.5986
拐	-10.5987
you	-10.599
拔牙	-10.5992
到当地	-10.5993
说法	-10.6001
胃口	-10.6004
湖南省	-10.6005
问问	-10.6006
才知道	-10.6007
欣	-10.6011
经济	-10.6013
我想咨询一下	-10.6015
皮质	-10.6016
当地医生	-10.6024
喉镜	-10.6027
点钟	-10.6027
又复发	-10.6028
PET	-10.6032
胃胀	-10.6036
▁南京鼓楼医院	-10.6037
次化疗	-10.6043
大多数	-10.6047
大学附属医院	-10.6051
茶	-10.606
昔	-10.606
上海市第十人民医院	-10.6061
雌激素	-10.6071
嘴巴	-10.6072
xiu	-10.6074
第一妇婴保健院	-10.6085
关闭不全	-10.6086
药水	-10.6086
我的病	-10.6087
去医院做	-10.6088
陈主任	-10.6093
还有什么	-10.6094
诊断结果	-10.6098
数据	-10.6099
偶尔会	-10.6101
检查说是	-10.6104
甲状腺素	-10.6106
换了	-10.6108
便血	-10.6109
就疼	-10.611
▁河南省人民医院	-10.611
mi	-10.6112
继续治疗	-10.6114
看不到	-10.6127
扶	-10.6133
场	-10.6134
出院时	-10.6141
并没有	-10.6152
希望您	-10.6156
辅	-10.6157
势	-10.6158
究竟	-10.6159
达英	-10.6161
为阴性	-10.6164
大问题	-10.6166
明年	-10.6167
市第二人民医院	-10.6172
年底	-10.6181
康复治疗	-10.6181
饱	-10.6182
苯	-10.6183
是否需要手术	-10.6183
志	-10.6184
报销	-10.6184
青岛	-10.6188
4.0	-10.6192
可以直接	-10.6197
中毒	-10.6201
五年	-10.6206
冠脉	-10.6209
行动	-10.621
随后	-10.6211
会导致	-10.6212
没有发现	-10.6215
关注	-10.6226
成形	-10.6232
流泪	-10.6236
▁无治疗	-10.6239
网上预约	-10.6241
缓慢	-10.6241
尿道口	-10.6242
曾经在	-10.6245
早上起床	-10.6248
很痛苦	-10.6252
3-5	-10.6254
材料	-10.6257
选	-10.6257
珍	-10.6258
皱	-10.6258
寒假	-10.6259
称	-10.6265
列	-10.6267
绝经	-10.6271
不适合	-10.6273
外面	-10.6275
每个月	-10.6277
一家	-10.6278
坐着	-10.6281
多少费用	-10.6281
可以服用	-10.6282
圈	-10.6283
残留	-10.6285
折	-10.63
给一些治疗建议	-10.6301
变小	-10.6303
我真的	-10.6308
忧	-10.6308
查出来	-10.6316
001	-10.6317
续	-10.6322
ug	-10.6327
最高	-10.6331
▁北部战区总医院	-10.6333
quan	-10.6334
失调	-10.6335
在门诊	-10.6337
直肠癌	-10.634
的风险	-10.6343
;2、	-10.6344
做了一次	-10.6345
如此	-10.6347
左卵巢	-10.6358
确切	-10.636
过两次	-10.6362
我已	-10.6371
年多了	-10.6373
第六	-10.6375
有的说	-10.6381
放弃	-10.6383
暴	-10.6383
科室	-10.6386
3.9	-10.6391
ding	-10.6396
师	-10.6404
麦	-10.6409
曙光医院东院	-10.6409
促排卵	-10.6411
盐	-10.6412
打电话	-10.6416
清洗	-10.6424
根除	-10.6428
按压	-10.6429
需要做什么检查	-10.643
木	-10.6431
鸣	-10.6432
肩膀	-10.6434
分散片	-10.6434
头昏	-10.6435
遇	-10.6435
打扰	-10.6435
的位置	-10.6437
期待	-10.6438
有点痛	-10.6444
医生说要	-10.6445
市中医医院	-10.645
肚子疼	-10.6453
看着	-10.6453
辣	-10.6459
进展	-10.6461
加剧	-10.6461
血液内科	-10.6467
我把	-10.6467
有少量	-10.6469
吴	-10.6471
一般不会	-10.6477
甚	-10.6478
中性粒细胞	-10.6484
kai	-10.6488
弥漫性	-10.6489
复位	-10.6494
自身	-10.6495
宫颈癌	-10.6502
早产	-10.6503
需要手术治疗	-10.6506
头颈外科	-10.6508
胞	-10.6508
也不能	-10.6509
沟	-10.6516
予	-10.6523
会复发	-10.6525
时常	-10.6528
压痛	-10.6528
这种症状	-10.6528
乙	-10.6529
可用	-10.6533
LA	-10.6537
询问	-10.6538
当地的	-10.6539
三个月后	-10.6543
口水	-10.655
ca	-10.6552
李教授	-10.6558
试管婴儿	-10.656
汤药	-10.656
忌	-10.6561
°	-10.6561
归	-10.6561
秋	-10.6561
舌苔	-10.6561
郭	-10.6562
0.00	-10.6567
大致	-10.6571
全天	-10.6578
鼻咽	-10.658
幅	-10.6581
商	-10.6583
2.9	-10.6586
尿路感染	-10.6587
绝对	-10.6596
吃过中药	-10.6601
诊断意见	-10.6603
牙根	-10.6604
一个小	-10.6609
点左右	-10.6612
环境	-10.6613
刮宫	-10.6614
血压高	-10.6614
▁河南中医药大学第	-10.6615
栓塞	-10.6619
没关系	-10.6623
支原体感染	-10.6624
对不起	-10.6625
TG	-10.6628
葡	-10.6633
途	-10.6638
AB	-10.6644
创	-10.6648
需要多长时间	-10.6659
很差	-10.6659
才发现	-10.666
冒	-10.6662
将近	-10.6663
yl	-10.6663
润	-10.6664
剖腹产	-10.6664
年纪	-10.6668
恶性肿瘤	-10.6672
信号影	-10.6672
远视	-10.6672
腿疼	-10.6674
md	-10.6677
不容易	-10.6679
抗过敏	-10.6683
的声音	-10.6685
4.2	-10.6686
没什么问题	-10.6689
恐惧	-10.669
仪器	-10.6691
暗区	-10.6693
容	-10.6694
县人民医院	-10.6694
河北	-10.6694
上厕所	-10.6695
到时候	-10.6697
做彩超	-10.6697
孕期	-10.6698
几率	-10.6701
如果你	-10.6705
叶酸	-10.671
浙江省	-10.6711
三年前	-10.6714
我很担心	-10.6714
忽	-10.6717
过敏性紫癜	-10.6717
皮疹	-10.6719
chao	-10.6722
太小	-10.6723
侧脑室	-10.6725
回事	-10.6731
半小时	-10.6734
比例	-10.6738
可探及	-10.674
钢	-10.6742
细胞瘤	-10.6745
代表	-10.6745
重建	-10.6748
1+	-10.6754
结果显示	-10.6755
孙大夫	-10.6766
你的回复	-10.6767
测量	-10.6767
谷草转氨酶	-10.6768
椎间盘突出	-10.6769
练习	-10.6769
辽宁	-10.6769
门静脉	-10.6774
明显好转	-10.6774
牛奶	-10.6775
像我这种情况	-10.6776
给开的	-10.6778
做造影	-10.6787
几种	-10.6789
蛋	-10.6792
数值	-10.6792
疾	-10.6792
群	-10.6794
哥	-10.6794
袁	-10.6795
的那种	-10.6798
您的建议	-10.6801
中医药大学	-10.6803
关键	-10.6811
可以进行	-10.6823
挂您的号	-10.6824
第四	-10.6825
彻底治愈	-10.6831
前列	-10.6833
脚踝	-10.6835
什么药物	-10.6838
好一些	-10.6842
宫腔镜检查	-10.6845
躁	-10.6847
正畸	-10.6849
指数	-10.6851
5.5	-10.6851
不理想	-10.6853
不知道该怎么办	-10.6854
我不想	-10.6858
有没有影响	-10.6859
2011.12	-10.686
有哪些	-10.686
医学院附属医院	-10.6871
整复外科	-10.6875
异味	-10.6876
感激	-10.6877
yy	-10.6879
手术风险	-10.688
刀口	-10.6881
病理结果	-10.6884
到正规医院	-10.6884
不久	-10.6889
专	-10.6891
发黄	-10.6893
随时	-10.6896
也许	-10.6898
PSA	-10.69
垂体瘤	-10.6905
不疼了	-10.6907
在您那	-10.6911
7.5	-10.692
施	-10.6927
幸福	-10.6927
昨晚	-10.6928
如果需要	-10.6928
白斑	-10.693
配镜	-10.6933
3.3	-10.6936
较小	-10.6937
季	-10.6952
权威	-10.6954
形状	-10.6955
无回声区	-10.6957
那边	-10.6959
胃溃疡	-10.6965
5-6	-10.697
过年	-10.6973
试纸	-10.6976
可考虑	-10.6977
击	-10.698
夫妻	-10.698
嗯	-10.6981
剩	-10.6982
让我们	-10.6983
右房	-10.6988
广	-10.7003
山西	-10.7003
认	-10.7005
咨询过	-10.7007
WI	-10.7007
新疆	-10.7008
儿童保健科	-10.7008
这些药	-10.7008
钢板	-10.7008
原来的	-10.7012
直径约	-10.7014
回声增强	-10.7023
PA	-10.7037
鼻孔	-10.7042
胰腺炎	-10.7043
加用	-10.7051
ni	-10.706
凌晨	-10.7061
心血管	-10.7061
中国医学科学院整形外科医院	-10.7062
球菌	-10.7064
峡部	-10.7075
最近几天	-10.7079
耳鼻喉	-10.7079
柳	-10.7088
▁广州医科大学附属	-10.7089
做化疗	-10.7097
不佳	-10.7101
后来又	-10.7102
规则	-10.7112
允许	-10.7116
rui	-10.7117
cy	-10.7117
摔倒	-10.7117
的状况	-10.7118
总胆红素	-10.7119
精神状态	-10.7121
低回声区	-10.7122
心血管科	-10.7122
mao	-10.7123
肉瘤	-10.7131
2003	-10.7131
泌尿	-10.7134
骨科医院	-10.7135
清除	-10.7136
边界清晰	-10.7141
发作时	-10.7141
姜	-10.7143
▁海军军医大学	-10.7143
妇科检查	-10.7145
良	-10.7149
个月大	-10.7157
满月	-10.7161
灼	-10.7168
病毒感染	-10.7178
结果出来	-10.7186
突起	-10.7192
现在的情况	-10.7193
幼儿园	-10.7196
磺	-10.7197
十年	-10.7198
▁广东省中医院	-10.7198
III	-10.721
溶	-10.7212
不如	-10.7218
请问这个	-10.7219
研究	-10.722
什么情况	-10.7223
烤瓷牙	-10.7224
胆囊息肉	-10.7231
接近	-10.7232
右肺	-10.7236
未见癌	-10.7238
有何	-10.7239
细胞癌	-10.724
怎么才能	-10.7243
详	-10.7245
磷	-10.7249
形态规则	-10.7252
不需	-10.7255
不是太	-10.7256
不确定	-10.7265
院区	-10.7268
男方	-10.7276
占	-10.7277
心功能	-10.7277
楼梯	-10.7279
抵抗力	-10.728
完善	-10.728
一段	-10.7281
自然流产	-10.7283
矮小	-10.7284
该怎样治疗	-10.7288
慌	-10.73
受到	-10.7301
沙星	-10.7307
▁上海市第六人民医院	-10.7308
信心	-10.7309
关节镜	-10.7315
ju	-10.7318
后才能	-10.732
分之	-10.7321
各位	-10.7324
拍过	-10.7325
大夫的回复	-10.7326
效果如何	-10.7332
辛	-10.7334
烫	-10.7334
不发烧	-10.7334
乌	-10.7335
国际	-10.7336
涂抹	-10.7336
总感觉	-10.7336
您的答复	-10.7341
吃些	-10.7341
无症状	-10.735
2004	-10.7354
电子	-10.7358
元月	-10.7361
类药物	-10.7362
全面检查	-10.7362
自主	-10.7363
所以想	-10.7364
工作顺利	-10.7367
虚弱	-10.7371
没发现	-10.7383
历	-10.7385
侵	-10.7389
光整	-10.7398
双下肢	-10.74
感冒药	-10.7402
不知是否	-10.7405
踝	-10.7408
里面有	-10.741
肝功能正常	-10.7412
BI	-10.7416
碎	-10.7417
HIV	-10.7418
王教授	-10.742
0-2	-10.7421
两月	-10.7423
AST	-10.7426
肺功能	-10.7429
以前没有	-10.7435
盲	-10.7446
岛	-10.7446
吻合	-10.7447
内容	-10.7467
高度	-10.7468
得厉害	-10.747
显影	-10.7473
大概需要	-10.7474
支援	-10.7475
冷冻	-10.7476
市儿童医院	-10.7476
服用中药	-10.748
到上海	-10.7481
▁浙江大学医学院附属	-10.7485
探查	-10.7486
袋	-10.7487
医生让我	-10.7488
的可能性大	-10.7493
怎	-10.7498
顾	-10.7502
闹	-10.7502
凹	-10.7502
连接	-10.7506
指导下	-10.7511
一个半月	-10.7521
今后	-10.7524
验光	-10.7527
范	-10.7531
屑	-10.7531
日下午	-10.7533
膨出	-10.7533
运动医学科	-10.7534
ent	-10.7534
肛裂	-10.7534
脱皮	-10.7535
吸入	-10.7535
斜颈	-10.7535
功	-10.7539
异物	-10.7541
一直未	-10.7544
大夫说是	-10.7544
有一定的	-10.7545
分泌	-10.7555
到当地医院	-10.7558
破坏	-10.7559
闻	-10.756
肠炎	-10.7564
下地	-10.7564
需要多少钱	-10.7565
口服药	-10.7573
再次感谢	-10.7574
脾气	-10.7574
长期服用	-10.7576
是什么原因引起的	-10.7582
是什么问题	-10.7583
危害	-10.7587
腰间盘突出	-10.7588
注意事项	-10.7588
中国医科大学	-10.7589
死了	-10.7604
未见明确	-10.7606
多种	-10.7609
需要注意什么	-10.7611
嗜	-10.7613
畸胎瘤	-10.7616
滞	-10.7616
卧床	-10.7616
消化道	-10.762
纸	-10.7621
彩	-10.7626
犯病	-10.7633
有关吗	-10.764
不止	-10.7644
没有什么效果	-10.7645
石家庄	-10.7645
长海医院	-10.7645
时间长了	-10.7646
翻身	-10.7646
钙化灶	-10.7647
市第一医院	-10.765
同学	-10.7653
左侧卵巢	-10.7656
提前预约	-10.7658
ll	-10.7659
回声不均	-10.7662
药方	-10.7665
睡前	-10.7666
确定是	-10.7667
鞘	-10.7673
物理治疗	-10.7673
循环	-10.7674
祛	-10.7674
伽马刀	-10.7674
qun	-10.7675
促排	-10.7677
不小心	-10.7679
小疙瘩	-10.7682
转到	-10.7682
胃痛	-10.7692
鸡蛋	-10.7694
照了	-10.7696
口腔科	-10.7701
个月的时候	-10.7701
缓释片	-10.7702
幽门	-10.7702
规范	-10.7703
压差	-10.7706
氨酸	-10.7707
又复发了	-10.7712
其他正常	-10.7718
第二人民医院	-10.7725
迹	-10.7729
邮	-10.7731
▁解放军第九六〇医院	-10.7732
管用	-10.7733
CK	-10.7735
我担心	-10.7737
探	-10.7739
脸色	-10.7739
门诊部	-10.7744
疏	-10.7751
鳞状上皮	-10.7751
恢复到	-10.7757
截	-10.7759
幅度	-10.7766
左心室	-10.7768
自理	-10.777
很容易	-10.7775
请问这种情况	-10.7776
2001	-10.7776
所有的	-10.7776
两个多月	-10.7778
la	-10.7781
间盘	-10.7781
变得	-10.7783
反映	-10.7789
霉菌性阴道炎	-10.7789
口腔颌面外科	-10.7789
辛辣	-10.7789
愉快	-10.779
福建	-10.779
抽空	-10.7795
抖	-10.7796
心肌炎	-10.7797
下段	-10.7808
器官	-10.7809
并伴有	-10.7811
最好能	-10.7814
河	-10.7816
止痛药	-10.7817
脱离	-10.7822
一直服用	-10.7826
▁天津医科大学	-10.7833
整形外科	-10.7834
礼拜	-10.7835
佩戴	-10.7842
桥	-10.7846
烂	-10.7847
霜	-10.7847
北京中医药大学东直门医院	-10.7848
实际	-10.7851
严重时	-10.7851
一直到现在	-10.7855
服中药	-10.7855
视神经	-10.7865
不能吃	-10.7867
纵膈	-10.7875
遇到	-10.7876
_6392	-10.7878
复查一次	-10.788
几分钟	-10.7887
xy	-10.7892
▁南方医科大学	-10.7895
冻	-10.7904
须	-10.7905
地塞米松	-10.7905
百分之	-10.7906
tong	-10.7906
病理检查	-10.7907
在一起	-10.7908
雾	-10.7909
▁小儿骨科	-10.791
脐	-10.7915
外用药	-10.7915
长春	-10.7919
去掉	-10.792
右侧卵巢	-10.7921
激素六项	-10.7928
有副作用	-10.7933
透声	-10.7936
吉林	-10.7937
期待您的回复	-10.7937
深圳医院	-10.7942
大拇指	-10.7949
平躺	-10.7952
听力下降	-10.7971
敢	-10.7972
生殖中心	-10.7976
一盒	-10.7977
精神病	-10.7984
从未	-10.7988
饮	-10.7989
顺尔宁	-10.7994
uren	-10.7994
腭裂	-10.7995
纤维化	-10.7998
慢性胃炎	-10.7999
就行了	-10.8
改为	-10.8003
3.7	-10.8013
未婚	-10.8015
生病	-10.8016
4.8	-10.8017
▁中山大学	-10.8024
补佳乐	-10.8024
透析	-10.8024
▁整形科	-10.8025
宫腔内	-10.8026
简单的	-10.8031
一般来说	-10.8033
湖南	-10.8035
好的办法	-10.8043
孙逸仙纪念医院	-10.8054
撕裂	-10.8055
负重	-10.8055
lixiao	-10.8056
后续	-10.8056
微波	-10.806
日晚	-10.806
脏	-10.8061
肛肠	-10.8061
不爱	-10.8068
国内	-10.8072
个月左右	-10.8072
啶	-10.8083
动态心电图	-10.8084
奥美拉唑	-10.8084
性皮炎	-10.8084
▁广州市妇女儿童医疗中心	-10.8084
mIU	-10.8087
月经期	-10.8089
边界	-10.8095
第五	-10.8098
膏药	-10.8108
黏	-10.8111
焦	-10.8112
百分比	-10.8112
扁平	-10.8115
急盼	-10.8116
椎管狭窄	-10.8121
长出来	-10.8125
州市	-10.8139
每个	-10.8143
做完手术	-10.8144
梅	-10.8144
徐大夫	-10.8146
生产	-10.8146
4.7	-10.8149
外观	-10.8152
胸痛	-10.8152
表现为	-10.8164
三院	-10.8166
不见效	-10.8168
破了	-10.8169
累及	-10.8173
过一段时间	-10.8174
meng	-10.8174
麻痹	-10.8175
肘	-10.8182
瞳孔	-10.8184
胃底	-10.8184
更多	-10.8189
▁北京大学肿瘤医院	-10.8204
依赖	-10.8204
▁不用谢	-10.8204
6.5	-10.8206
此次	-10.8206
▁四川大学华西医院	-10.8211
头上	-10.8212
用激素	-10.8214
宝宝现在	-10.8222
痔	-10.8226
re	-10.8227
wj	-10.8227
吃的药	-10.8229
第三附属医院	-10.823
鼻咽癌	-10.8236
生存	-10.8238
少量积液	-10.8239
呼吸机	-10.8241
qian	-10.8245
肠梗阻	-10.8246
zhangshi	-10.8247
ri	-10.8249
低下	-10.8252
必须要	-10.826
生殖器	-10.826
颈动脉	-10.8262
子宫前位	-10.8263
溃	-10.8263
粘稠	-10.8264
欠佳	-10.8264
缺钙	-10.8266
鼓膜	-10.827
食道癌	-10.827
制定	-10.8272
不知道怎么办	-10.8272
腕	-10.8272
急切	-10.8275
wh	-10.8277
憋气	-10.828
抑	-10.8284
服用过	-10.8285
需要手术吗	-10.8286
整天	-10.829
睡眠不好	-10.829
大动脉	-10.8291
骨质疏松	-10.8295
密切	-10.8298
最终	-10.8299
存	-10.8316
智	-10.8322
厌	-10.8324
武	-10.8326
肾虚	-10.8328
一年半	-10.8332
PH	-10.8342
拔除	-10.8346
ST	-10.8349
为何	-10.8351
有两个	-10.8352
控	-10.8356
桃	-10.8356
哈尔滨医科大学附属第二医院	-10.8357
切缘	-10.8359
宽约	-10.836
在家里	-10.8361
心衰	-10.8368
发痒	-10.8376
扁	-10.8385
利尿	-10.8389
了不少	-10.8389
抽出	-10.839
淤血	-10.8392
bai	-10.8397
可能与	-10.8398
针灸治疗	-10.8399
不能动	-10.8404
吃了药	-10.8407
一张	-10.8407
近两年	-10.8412
坚	-10.8416
旁边	-10.842
一半	-10.8422
左膝	-10.8427
躺	-10.8429
抗炎	-10.8436
有什么方法	-10.8442
宫体	-10.8443
mmol	-10.8446
给宝宝	-10.8447
脑子	-10.8447
司	-10.8448
解放军	-10.8448
饮酒	-10.845
去你那	-10.8454
看不清	-10.8455
前列腺癌	-10.8457
!!!!	-10.8459
脓肿	-10.8466
费用大概多少	-10.8467
可能需要	-10.8468
氧化	-10.8468
去您那里	-10.8469
将来	-10.8471
两个月前	-10.8472
非常感谢您的回复	-10.8475
在这里	-10.8479
郁	-10.8479
最多	-10.8481
重视	-10.8481
承受	-10.8488
碰到	-10.8492
湖北省	-10.8497
保守	-10.8507
受不了	-10.851
辛苦	-10.851
姐	-10.851
癣	-10.8511
溃烂	-10.8512
早晚	-10.8516
羊	-10.8517
还得	-10.853
谷丙	-10.8538
双手	-10.8539
万元	-10.854
烤	-10.8542
消融	-10.8542
岳阳	-10.8543
专门	-10.8544
早晚各	-10.8544
检查所见	-10.8544
这是什么原因	-10.8545
建议到医院	-10.8546
浙江	-10.8548
图像	-10.8551
宁波	-10.8553
椎管	-10.8554
不对称	-10.8556
drwang	-10.8557
介	-10.8573
Q	-10.8573
这么快	-10.8574
泌尿科	-10.858
5.6	-10.8584
近一年	-10.8585
较重	-10.8585
五项	-10.8586
还有其他	-10.859
溶血	-10.8601
再次手术	-10.8604
五官科	-10.8605
胶质瘤	-10.8605
吊瓶	-10.8605
甘草	-10.8606
乙肝大三阳	-10.8608
详细检查	-10.8611
到您那	-10.8631
需要治疗吗	-10.8632
微量元素	-10.8637
疲	-10.8637
变窄	-10.8638
说明书	-10.8638
给我回复	-10.864
一旦	-10.864
希望你	-10.8641
三项	-10.8647
胫骨	-10.8649
不稳定	-10.8651
pp	-10.8654
彩色血流	-10.8656
看不见	-10.8657
始	-10.8661
前期	-10.8661
单子	-10.8663
口干	-10.8664
方子	-10.8664
释	-10.8667
根据您的	-10.8668
蒙	-10.8668
深度	-10.8668
首选	-10.8669
ykyg	-10.8669
盆	-10.8674
有疼痛感	-10.8681
没在意	-10.8681
有机会	-10.8681
日上午	-10.8684
lx	-10.8688
去医院做了	-10.8696
较为	-10.8699
士	-10.8699
嗪	-10.87
▁山东第一医科大学第	-10.87
中医药大学第二附属医院	-10.8701
结痂	-10.8701
上肢	-10.8702
适应	-10.8702
来我门诊	-10.8704
这方面	-10.8704
来例假	-10.8707
异位	-10.8708
求助	-10.8716
胚	-10.8716
架	-10.8731
交叉	-10.8732
跪求	-10.8732
吊针	-10.8736
刚出生	-10.8747
镜检	-10.8748
得到您的帮助	-10.8751
去贵院	-10.8752
TT	-10.8754
两三	-10.8755
dl	-10.8756
4.1	-10.8761
肯	-10.8761
玉	-10.8764
FSH	-10.8764
促进	-10.8768
免	-10.8771
成人	-10.8771
这种状况	-10.8772
医生诊断为	-10.8773
中期	-10.8786
lv	-10.879
集中	-10.8793
该怎样	-10.8795
退行性	-10.8796
纠正	-10.8797
排队	-10.8797
四川	-10.88
手上	-10.8803
不要紧	-10.8808
粒肿	-10.8812
围	-10.8817
两项	-10.8817
英	-10.8827
上颌窦	-10.8828
不算	-10.8831
▁不谢	-10.8832
口腔溃疡	-10.8832
为什么会	-10.8833
EF	-10.8837
hd	-10.8838
控制住	-10.8839
校	-10.8845
去上海	-10.8855
不是很严重	-10.8855
手机	-10.8856
化脓	-10.8857
边界尚清	-10.886
心肌酶	-10.8862
慢性浅表性胃炎	-10.8863
嘴角	-10.8864
肚子痛	-10.8871
视力下降	-10.8872
考虑为	-10.8872
到底是什么病	-10.8874
开始出现	-10.8878
请问这是	-10.8879
刘主任	-10.888
我的孩子	-10.8882
河北省	-10.8888
▁济南市	-10.889
念	-10.8892
助听器	-10.8892
氢	-10.8892
山东大学附属生殖医院	-10.8893
醋酸	-10.8893
疑问	-10.8897
不排除	-10.8905
向您	-10.8905
靠近	-10.8908
甲状腺癌	-10.8909
凝	-10.8918
脾胃	-10.8922
唐都医院	-10.8926
主刀	-10.8927
备孕	-10.8929
诊断一下	-10.8933
药流	-10.8935
让孩子	-10.8939
药品	-10.8939
找不到	-10.8944
腹膜后	-10.8945
未见好转	-10.8949
不然	-10.8952
女方	-10.8954
忘记	-10.8957
伏	-10.8958
顺产	-10.8958
河北省胸科医院	-10.8958
空洞	-10.8959
眼屎	-10.896
要多少钱	-10.8964
高信号	-10.8968
空腹血糖	-10.8977
老婆	-10.8977
宫颈炎	-10.898
4.9	-10.8983
插	-10.8984
京	-10.8989
仪	-10.899
IgG	-10.899
阿奇	-10.899
进一步治疗	-10.8991
生下来	-10.8992
气喘	-10.8994
支气管肺炎	-10.8995
龄	-10.8997
mu	-10.8999
慢性前列腺炎	-10.8999
戴眼镜	-10.9
我老婆	-10.9003
条状	-10.9014
在哪里	-10.9019
频谱	-10.9021
费用大概	-10.9021
中指	-10.9022
虑	-10.9023
农村	-10.9023
wuqian	-10.9026
光团	-10.9028
得病	-10.9029
室缺	-10.9038
到底是什么	-10.9039
意外	-10.9039
以前身体	-10.904
应当	-10.9045
6.8	-10.9051
原发	-10.9051
低于	-10.9052
每晚	-10.9055
pei	-10.9057
还行	-10.9058
怎么办啊	-10.9059
生孩子	-10.9062
建议手术治疗	-10.907
比较合适	-10.9076
肢	-10.9082
什么东西	-10.9082
搏	-10.9083
抽筋	-10.9092
减压	-10.9096
我家孩子	-10.9097
张教授	-10.9104
律	-10.9105
尚未	-10.9107
给些建议	-10.9107
50%	-10.9112
传上来	-10.9112
踝关节	-10.9114
寻	-10.9121
植皮	-10.9122
心绞痛	-10.9122
▁中国人民解放军	-10.9122
di	-10.9124
受凉	-10.9128
衣服	-10.9135
江苏省	-10.9135
本院	-10.9137
做哪些	-10.9141
拔掉	-10.9151
一周前	-10.9151
ar	-10.9156
减肥	-10.9156
懂	-10.9157
彩超显示	-10.9162
LH	-10.9164
回声欠均匀	-10.9166
问下	-10.9171
华西医院	-10.918
很久	-10.9181
用的是	-10.9188
紫癜	-10.9189
氮	-10.9189
▁四川省	-10.9189
xiong	-10.9189
肝内胆管	-10.919
拜托	-10.919
厦门	-10.9192
远端	-10.9193
时机	-10.9193
系带	-10.9195
哺乳	-10.9195
放松	-10.9196
dai	-10.9199
解除	-10.9203
一家医院	-10.9205
腿上	-10.9209
封闭抗体	-10.9211
从小就	-10.9215
实质回声	-10.9217
河南	-10.9218
化痰	-10.9221
困扰	-10.9222
AFP	-10.9223
丹参	-10.9224
根管治疗	-10.9224
创面	-10.9226
结肠癌	-10.9228
玻璃体	-10.9229
十几天	-10.9233
感谢您的回复	-10.9241
发紫	-10.9242
第五天	-10.9246
奈	-10.9255
特需门诊	-10.9256
造瘘	-10.9256
以前身体良好	-10.9257
我认为	-10.9259
半月板损伤	-10.9269
我的病情	-10.9281
隐隐	-10.9283
备	-10.9283
用什么方法	-10.9283
错了	-10.9284
做腹腔镜	-10.9286
反射	-10.9286
兆	-10.9289
动脉导管未闭	-10.929
肠溶片	-10.929
低压	-10.9291
弯腰	-10.9291
给一些建议	-10.9293
分析一下	-10.9293
快点	-10.9297
反应蛋白	-10.9298
开始服用	-10.9301
应该怎样治疗	-10.9302
早日	-10.9303
十多天	-10.9304
eding	-10.9307
乳腺纤维瘤	-10.9308
换成	-10.9311
鼻窦	-10.9315
溢	-10.9321
~~~	-10.9322
德巴金	-10.9323
闭锁	-10.9324
胎停育	-10.9325
全套	-10.9326
标本	-10.9327
摔伤	-10.9328
回家后	-10.9328
结论是	-10.9329
流脓	-10.9329
住院期间	-10.9337
在本地	-10.9344
能治愈吗	-10.9345
角度	-10.9352
鼻中隔	-10.9357
融合	-10.9357
母乳喂养	-10.9357
包皮过长	-10.9357
源性	-10.9358
睡不好	-10.9359
在县医院	-10.9361
错位	-10.9363
往往	-10.9364
牙周	-10.9366
躺下	-10.9366
专家号	-10.9369
糖浆	-10.9371
体力	-10.9373
不规律	-10.9374
佳	-10.9378
衣	-10.9379
病情加重	-10.9379
生气	-10.9382
手术费	-10.9385
上皮细胞	-10.9385
滋	-10.9387
哪个医院	-10.9388
泻	-10.9389
皮炎	-10.939
咋	-10.9391
护肝	-10.9392
抗感染	-10.9395
qu	-10.9397
看不出	-10.9402
方便的话	-10.9403
也没什么	-10.9406
频率	-10.9411
今天早上	-10.9417
跳动	-10.9422
彩色多普勒	-10.9423
逆	-10.9424
震	-10.9424
帕金森	-10.9425
缺乏	-10.9426
怎么办呢	-10.9426
kang	-10.9426
胆囊结石	-10.9433
xz	-10.944
骨骨折	-10.9443
焦虑症	-10.9446
在天津	-10.9449
有什么问题	-10.9458
克拉霉素	-10.9459
负担	-10.9459
更年期	-10.9461
4.6	-10.9462
第五人民医院	-10.9462
ning	-10.9468
弱阳性	-10.9469
效果不错	-10.9469
切片	-10.9488
查不出	-10.9489
射频消融	-10.9494
信任	-10.9495
动脉硬化	-10.9495
肌肉萎缩	-10.9498
在外地	-10.9499
补钙	-10.9504
zx	-10.9512
来诊	-10.9516
近一个月	-10.9519
来找我	-10.9521
以免	-10.9522
萄	-10.9523
尤	-10.9527
我爱人	-10.9527
牵	-10.9527
凝血	-10.9527
左氧氟沙星	-10.9533
那么大	-10.9536
两颗	-10.9542
植	-10.9551
高度近视	-10.9555
才能确定	-10.9557
在正常范围	-10.9559
依据	-10.9564
到什么程度	-10.9564
南昌	-10.9564
骨盆	-10.9566
生殖医学科	-10.9572
开水	-10.9581
肾功	-10.9588
旋	-10.9595
粗糙	-10.9596
聊	-10.9597
妈富隆	-10.9597
巧克力囊肿	-10.9598
禁忌	-10.9598
肛肠外科	-10.9601
颗牙	-10.9602
渗出	-10.9604
AS	-10.9611
之内	-10.9619
渗	-10.9625
像我这样	-10.9628
叉	-10.9629
趋势	-10.9632
振	-10.9632
咖啡色	-10.9632
既然	-10.9633
去医院就诊	-10.9634
外翻	-10.9646
耐受	-10.9647
头顶	-10.9651
一共	-10.9657
饮食上	-10.9661
停经	-10.9662
▁华中科技大学同济医学院	-10.9668
挫伤	-10.9668
血象	-10.9672
北京儿童医院	-10.9672
过来看看	-10.9681
控制病情	-10.9687
华西	-10.9689
肾内科	-10.969
国产	-10.9693
化疗方案	-10.9699
社	-10.9699
zhan	-10.97
刻	-10.9701
省千佛山医院	-10.9703
区人民医院	-10.9703
戴镜	-10.9709
有所缓解	-10.9709
水果	-10.9712
乳头状	-10.9714
低密度	-10.9715
关键是	-10.9717
这些症状	-10.9721
淋巴结转移	-10.9726
复发率	-10.9728
该病	-10.973
输血	-10.973
难度	-10.9733
去当地医院	-10.9734
刘医生	-10.9735
料	-10.9736
种植	-10.9738
月经干净后	-10.9738
通而不畅	-10.9738
休养	-10.9739
gong	-10.9739
北京医院	-10.9743
小肠	-10.9743
打完	-10.9743
动力	-10.9746
正好	-10.9755
吃了一个月	-10.9758
内固定	-10.9759
窄	-10.9769
卫	-10.977
显著	-10.9773
搭桥	-10.9774
▁小儿心脏中心	-10.9774
附属同济医院	-10.9774
好的治疗方法	-10.9782
动脉瘤	-10.9792
左膝关节	-10.9799
规整	-10.9807
器质性	-10.9807
0--	-10.9808
注意休息	-10.9809
氨基	-10.981
大小形态正常	-10.9814
期盼	-10.9818
xiaohui	-10.9821
吴大夫	-10.983
二个月	-10.983
弱精	-10.9832
概率	-10.9834
pmol	-10.9841
常常	-10.9841
始终	-10.9843
精神分裂症	-10.9845
痛风	-10.9846
康复医学科	-10.9847
星期一	-10.9849
失明	-10.985
周三上午	-10.985
管腔	-10.9854
冬季	-10.9858
预约挂号	-10.9861
检查的结果	-10.9864
双侧输卵管	-10.9866
五个月	-10.9868
倍他乐克	-10.988
瘀	-10.988
清洁度	-10.988
胀气	-10.988
烟台	-10.9881
边界欠清	-10.9883
对比	-10.9883
乳腺科	-10.9883
*0.5	-10.9884
五六	-10.9895
高兴	-10.9901
这么小	-10.9901
初期	-10.991
HBV	-10.9916
患者报到	-10.9916
蛋白尿	-10.9933
结束后	-10.9934
0-3	-10.9936
北大	-10.9941
异物感	-10.9946
▁想请问	-10.9949
太阳穴	-10.9951
骶髂关节	-10.9952
中国中医科学院广安门医院	-10.9952
滴虫	-10.9954
挤压	-10.9954
过敏源	-10.9956
骨外科	-10.9958
假体	-10.996
您觉得	-10.996
哪方面	-10.9965
没劲	-10.9965
硬膜囊	-10.9987
xh	-10.9987
肌张力	-10.9987
▁南京市	-10.9989
▁未知	-10.9992
很重	-10.9992
造影剂	-10.9994
双方	-10.9995
外敷	-10.9999
第四天	-10.9999
肠镜检查	-11
▁厦门大学附属	-11.002
倾	-11.0021
孩子太小	-11.0023
想问您	-11.0031
调经	-11.0031
难道	-11.0031
黄豆	-11.0033
中段	-11.0034
参加	-11.0038
衡	-11.0041
胃疼	-11.0052
▁青岛市	-11.0055
幽门螺杆菌	-11.0061
烦躁	-11.0061
▁上海长征医院	-11.0061
指教	-11.0064
华山医院	-11.0067
首	-11.0071
您的帮助	-11.0074
课	-11.008
自觉	-11.0081
帮忙看看	-11.0081
梗塞	-11.0085
长了一个	-11.0088
浙	-11.0095
评	-11.0096
一瓶	-11.0096
再观察	-11.0096
▁北京大学深圳医院	-11.0097
忍	-11.0103
积极治疗	-11.0104
不太清楚	-11.0105
活血	-11.0106
咽部	-11.0107
软化	-11.011
CO	-11.0116
关心	-11.0117
可见多个	-11.0119
降压	-11.0125
毛糙	-11.013
卡马西平	-11.0133
喂养	-11.0134
脾胃病科	-11.0135
倾向	-11.0136
光动力	-11.0136
阑尾炎	-11.0137
感谢你	-11.0137
康复训练	-11.0138
降下来	-11.014
抽动	-11.0149
神经外科	-11.0154
肝部	-11.0156
上腹部	-11.0163
纤	-11.0168
呕	-11.0169
钟	-11.0171
白癜风	-11.0171
既往	-11.0171
消化不良	-11.0172
元旦快乐	-11.0172
引产	-11.0175
在广州	-11.0176
花费	-11.0176
什么时候可以	-11.0177
再考虑	-11.0184
早孕	-11.0186
很低	-11.0197
胸骨	-11.0198
功能障碍	-11.0201
不明白	-11.0204
沈	-11.0206
妻子	-11.0209
粘膜光滑	-11.021
移动	-11.0215
做这个手术	-11.0221
清理	-11.0222
脑炎	-11.0223
度左右	-11.0226
诊室	-11.0235
幸	-11.0242
昌	-11.0243
肾小球	-11.0243
各项指标	-11.0246
尿急	-11.0247
缺失	-11.0247
晕倒	-11.0247
忘了	-11.0247
这类	-11.0249
赵大夫	-11.025
我打算	-11.0251
阴超	-11.0254
周一上午	-11.0254
十多年	-11.0255
不齐	-11.0262
钙片	-11.0265
这么大	-11.0267
稳	-11.0268
展	-11.027
奶奶	-11.0275
偏小	-11.0276
7.8	-11.0278
潍坊	-11.0281
主动脉弓	-11.0281
▁中国医科大学附属盛京医院	-11.0282
嗜睡	-11.0282
仅仅	-11.0284
义	-11.029
很不舒服	-11.0296
中西医结合	-11.0304
▁西安市	-11.0305
幼	-11.0316
抽动症	-11.0317
护士	-11.0319
不良反应	-11.0323
必须手术	-11.0323
时不时	-11.0326
pu	-11.0333
江西省	-11.0335
持续时间	-11.0338
成分	-11.0342
要注意什么	-11.0343
帮你	-11.0345
分别为	-11.0346
分钟左右	-11.0351
希望能得到	-11.0353
脑脊液	-11.0353
发黑	-11.0354
很重要	-11.0356
硝	-11.0356
cai	-11.0365
中西药	-11.0366
三十	-11.0368
看什么科	-11.039
类风湿因子	-11.0392
腺肌症	-11.0394
肉芽	-11.0394
粉碎性骨折	-11.0394
脱敏	-11.0397
孕囊	-11.0403
为止	-11.0404
想尽快	-11.0419
还不错	-11.042
三维	-11.0423
昏	-11.0427
细小	-11.0427
记录	-11.0431
矫形	-11.0432
室水平	-11.0433
研究所	-11.0434
发展到	-11.0437
主干	-11.0439
首先要	-11.0448
乳突	-11.0451
肉眼	-11.0455
幻	-11.046
洗液	-11.0462
万左右	-11.0465
负	-11.0466
绿	-11.0467
谱	-11.0468
摸到	-11.0469
煤	-11.047
痰多	-11.0474
一项	-11.0476
几年前	-11.048
月经量少	-11.0485
济	-11.0499
应该如何治疗	-11.0502
本地医院	-11.0503
送检	-11.0504
汁	-11.0506
饱满	-11.0507
碍	-11.0507
▁浙江中医药大学附属	-11.0508
杂音	-11.0509
表面光滑	-11.0509
转入	-11.0513
温度	-11.052
开腹	-11.0521
低回声团	-11.0523
得知	-11.0523
症状消失	-11.0532
浅表	-11.0539
房缺	-11.054
碳	-11.0545
复旦大学附属眼耳鼻喉科医院	-11.0546
应该怎样	-11.0548
增强扫描	-11.0548
好办法	-11.0558
这期间	-11.057
市第三人民医院	-11.0571
答	-11.0579
TPO	-11.0582
不痛不痒	-11.0584
ongti	-11.0584
qiao	-11.0584
沙坦	-11.0584
精神科	-11.0585
多囊卵巢综合症	-11.0585
结扎	-11.0585
我在网上	-11.0586
尿管	-11.0587
清淡	-11.0593
超声描述	-11.0597
不能确定	-11.0613
谷草	-11.0618
认识	-11.0622
潭	-11.0623
就算	-11.0623
前交叉韧带	-11.0623
成都市妇女儿童中心医院	-11.0623
直接胆红素	-11.0626
在本地医院	-11.0627
▁感染科	-11.063
厚约	-11.063
一致	-11.0635
徐州	-11.0637
山医院	-11.0643
脊	-11.0656
眉	-11.0659
蝶	-11.0661
髋臼	-11.0661
祝您新年快乐	-11.0663
回声不均匀	-11.0669
压迫神经	-11.0675
无关	-11.0675
怎么样才能	-11.0676
热水	-11.0681
这种现象	-11.0681
返	-11.0682
元左右	-11.0688
总觉得	-11.069
结肠炎	-11.0696
纯	-11.0698
吃消炎药	-11.0699
灌注	-11.07
吸烟	-11.0701
zi	-11.0701
磷酸	-11.0702
支具	-11.0702
闭塞	-11.0702
乙肝疫苗	-11.0703
表达	-11.0704
该怎么做	-11.0708
眼袋	-11.0715
现在还在	-11.0715
5.8	-11.0732
六项	-11.0734
谷	-11.0739
起搏器	-11.0739
陕西省	-11.0739
未见明显血流信号	-11.0741
名字	-11.0742
怎样的治疗	-11.0746
litian	-11.0751
▁中山大学附属	-11.0752
有点痒	-11.0767
类圆形	-11.0776
瓷	-11.0777
证明	-11.0783
神经损伤	-11.0798
耐	-11.0798
妈	-11.0798
多喝水	-11.08
趾	-11.0802
红疹	-11.0803
食指	-11.0806
假如	-11.081
齐鲁医院	-11.0815
强烈	-11.0816
抽烟	-11.0819
费用大约	-11.0832
十五	-11.0835
医生给开了	-11.0844
躺着	-11.0849
店	-11.085
IgM	-11.0854
盼望	-11.0854
失去	-11.0855
医术	-11.0856
子宫内膜异位症	-11.0856
甲胎蛋白	-11.0856
医学科学院	-11.0857
可以选择	-11.0863
结核病	-11.0865
暂不	-11.0866
ro	-11.0869
右膝	-11.0869
省中医院	-11.0873
双耳	-11.0882
义眼	-11.0886
眠	-11.0891
mL	-11.0893
心动过速	-11.0895
丘	-11.0895
_65504	-11.0896
阴部	-11.0902
想请您	-11.0909
7.1	-11.091
不见效果	-11.0911
肺门	-11.0911
表皮	-11.0912
无论	-11.0921
咽喉炎	-11.0923
双侧卵巢	-11.0924
MG	-11.0934
旧	-11.0935
柱	-11.0935
一个月左右	-11.0935
末次月经	-11.0936
喝中药	-11.0937
照顾	-11.0937
脂肪瘤	-11.0942
向您咨询	-11.0945
改用	-11.0948
代替	-11.0949
LV	-11.0963
玻璃	-11.0966
精神卫生中心	-11.0967
止疼	-11.0973
桥本	-11.0977
去你们医院	-11.0982
局限性	-11.0988
着凉	-11.0996
分期	-11.1
福州	-11.1012
昨天晚上	-11.1012
模	-11.1014
▁解放军总医院第五医学中心	-11.1016
加个号	-11.1016
周四上午	-11.1018
关节面	-11.1019
6.0	-11.1025
以往	-11.1026
上课	-11.1031
颅脑	-11.1044
经历	-11.1045
予以	-11.1051
姿势	-11.1054
溴隐	-11.1055
廓	-11.1056
所患疾病	-11.1056
根治术	-11.1061
血小板减少	-11.1063
通液	-11.1066
嘴里	-11.1066
心律失常	-11.1069
在网上查	-11.1072
一个礼拜	-11.1073
波动	-11.1078
欠均匀	-11.1078
十几年	-11.1082
月经干净	-11.1082
腹膜	-11.1086
甲状腺炎	-11.1088
阑尾	-11.1093
绿色	-11.1096
都没问题	-11.1096
安徽省立医院	-11.1097
甲状腺右叶	-11.1101
天津医科大学总医院	-11.1107
脱垂	-11.1113
症状减轻	-11.1117
请假	-11.112
鳞癌	-11.1122
两三天	-11.1122
放疗科	-11.1125
呼噜	-11.1131
胃体	-11.1133
肥胖	-11.1137
内分泌失调	-11.1138
是否适合	-11.1141
视物	-11.1146
椎动脉	-11.115
来北京	-11.1158
长沙	-11.1163
承	-11.1165
象限	-11.1178
不详	-11.1179
广西	-11.1179
童	-11.1181
挂什么科	-11.1181
保养	-11.1181
有经验的	-11.1183
肝功正常	-11.1184
影响不大	-11.1185
观察一段时间	-11.1192
供血不足	-11.1193
脑病科	-11.1193
中西医结合治疗	-11.12
忍受	-11.1202
多久才能	-11.1205
直到现在	-11.1206
xj	-11.1207
颅骨	-11.1208
▁苏州市	-11.121
手掌	-11.1211
淤	-11.1213
集合系统	-11.1214
容易复发	-11.1215
回声中断	-11.1216
帕	-11.1216
黑龙江	-11.1218
合肥	-11.1218
凝胶	-11.1219
慢性咽炎	-11.1222
消毒	-11.1223
较大者	-11.1239
会加重	-11.124
严重影响	-11.1246
4/5	-11.1249
效果不理想	-11.1251
心肌缺血	-11.1259
宫腔粘连	-11.1262
出差	-11.1266
响声	-11.1273
彩色	-11.1274
重复	-11.1275
在网上看到	-11.1276
角膜炎	-11.1279
*0.6	-11.1294
吡	-11.13
甲硝唑	-11.13
中南大学湘雅医院	-11.13
公司	-11.1301
胸腔积液	-11.1303
拍片子	-11.1304
双侧颈部	-11.132
认真	-11.132
避孕药	-11.1321
灵活	-11.1329
*0.4	-11.1334
哺乳期	-11.1335
涕	-11.1336
脾大	-11.1338
都是阴性	-11.1338
怎么处理	-11.134
甲钴胺	-11.1341
序	-11.1341
占位性病变	-11.1341
友谊医院	-11.1342
我是一名	-11.1342
都是正常的	-11.1342
脸颊	-11.1342
杭州市中医院	-11.1343
▁徐州市	-11.1347
唯一	-11.1348
检查和治疗	-11.1349
走行	-11.1357
大面积	-11.1363
胰腺癌	-11.1364
家里人	-11.1367
初步诊断	-11.1378
WBC	-11.138
各项检查	-11.1382
氯雷他定	-11.1382
早日康复	-11.1383
操作	-11.1384
ru	-11.1384
舒张期	-11.1392
提出	-11.1392
一周左右	-11.1392
盼回复	-11.1399
骨穿	-11.141
多梦	-11.1418
需要做哪些检查	-11.1418
第六医院	-11.1421
练	-11.1423
希	-11.1423
谷氨酰	-11.1424
利巴韦林	-11.1424
膀胱镜	-11.1425
毛细血管	-11.1425
陈教授	-11.1427
原则	-11.1431
针对性	-11.1432
肺病科	-11.1434
生长发育	-11.1434
脓包	-11.1434
睁	-11.1436
liuchen	-11.1436
你提供的	-11.1437
南京市妇幼保健院	-11.1443
在当地医院做过	-11.1452
or	-11.1457
把片子	-11.1465
斑点	-11.1465
实质回声均匀	-11.1466
剥	-11.1466
开颅手术	-11.1466
求求	-11.1471
不愿意	-11.1474
相同	-11.148
激素水平	-11.1483
超提示	-11.1488
两个星期	-11.1495
给点建议	-11.1508
很长时间	-11.1511
网膜	-11.1511
美观	-11.1512
插管	-11.1514
七八	-11.1519
内裤	-11.1522
wangyan	-11.1526
请您给	-11.1533
二次手术	-11.1533
微量	-11.1538
左侧睾丸	-11.1539
应该注意什么	-11.1543
境	-11.1549
不胜感激	-11.1551
湿疣	-11.1551
希望医生能	-11.1554
间歇性	-11.1564
右下腹	-11.1566
晶	-11.1589
滴度	-11.1592
中草药	-11.1593
祝早日康复	-11.1594
dan	-11.1594
脑袋	-11.1598
各项	-11.1603
血流速度	-11.1604
午	-11.1613
性欲	-11.1613
混合性	-11.1618
筛	-11.1628
声像	-11.1629
兰州	-11.1633
添	-11.1635
疱	-11.1636
新年好	-11.1636
潍坊市中医院	-11.1636
▁手外科	-11.1639
脚后跟	-11.1641
心态	-11.1641
▁心外科	-11.1642
脑供血不足	-11.1661
痂	-11.1677
8.5	-11.1678
负责	-11.1678
广州中医药大学第一附属医院	-11.1679
跑步	-11.168
洛尔	-11.168
通知	-11.1685
化脓性	-11.1695
担	-11.1714
反酸	-11.1715
co	-11.1721
左侧输卵管	-11.1722
_6394	-11.1723
第二附属医院	-11.1723
让她	-11.1724
网络	-11.1724
得到您的	-11.1725
3-6	-11.1729
;3、	-11.1733
鳞	-11.1733
实质性	-11.1735
▁武汉市	-11.1738
强迫	-11.1744
第四医院	-11.175
题	-11.1755
解放军总医院第七医学中心	-11.1756
生活质量	-11.1763
颤	-11.1763
逸夫医院	-11.1765
罗红霉素	-11.1765
潮湿	-11.1765
硫酸	-11.1769
肝右叶	-11.1769
保住	-11.1772
近视眼	-11.1773
PG	-11.1784
构	-11.1789
溶液	-11.1791
外形	-11.1794
巩固	-11.1806
磨牙	-11.1806
出门	-11.1807
万事如意	-11.1808
带状疱疹	-11.1808
痘印	-11.1809
短暂	-11.1813
孕前检查	-11.1813
自动	-11.1813
北京协和医院	-11.183
还算	-11.1834
中山医院	-11.1836
近半年	-11.1845
胎芽	-11.185
熬	-11.185
渐	-11.185
障	-11.1851
骨伤科	-11.1851
排列	-11.1851
▁青岛大学附属医院	-11.1851
军区总医院	-11.1851
肛瘘	-11.1852
营养不良	-11.1853
恶变	-11.1858
ne	-11.1861
前列腺增生	-11.1862
帮我看一下	-11.1864
是良性的	-11.1871
给我开的	-11.1875
大概需要多少钱	-11.1879
看电视	-11.1885
隐睾	-11.1887
腱	-11.1892
〇	-11.1895
酸胀	-11.1896
宝贵	-11.1897
jiao	-11.19
_638368	-11.19
···	-11.1908
型糖尿病	-11.1913
性格	-11.1914
心律	-11.1918
服用优甲乐	-11.1924
被诊断为	-11.1925
肺腺癌	-11.1933
*1.5	-11.1934
全国	-11.1937
北医三院	-11.1938
常州	-11.1938
侵犯	-11.1939
手续	-11.1944
刘教授	-11.1948
女朋友	-11.1951
广东	-11.1962
十年前	-11.1963
管它	-11.1963
属于什么	-11.1972
眨眼	-11.1978
病程	-11.1979
卵圆孔未闭	-11.1982
▁北京大学口腔医院	-11.1983
▁中山大学附属第一医院	-11.1984
80%	-11.1984
静养	-11.1986
红血丝	-11.1992
医学院附属	-11.1992
细胞学	-11.1993
一会就	-11.1994
广州市	-11.1995
张嘴	-11.2001
正位	-11.2006
_655524	-11.2014
(1)	-11.2015
7.2	-11.2018
5000	-11.2023
开胸	-11.2025
靶向治疗	-11.2027
考试	-11.2027
同龄	-11.2029
想要孩子	-11.2032
一系列	-11.2035
真正	-11.2042
脑萎缩	-11.2046
温州	-11.206
膨	-11.2065
注意力	-11.2067
单核细胞	-11.2068
请结合临床	-11.2069
设备	-11.207
朝	-11.207
甲氨蝶	-11.2071
umol	-11.2071
核心抗体	-11.2071
陈旧性	-11.2071
医生给我开了	-11.2074
电切	-11.2075
RA	-11.2078
周末	-11.2084
肌壁	-11.2086
了解病情	-11.209
chuan	-11.2091
耳膜	-11.2091
欠清	-11.2094
气胸	-11.2094
强迫症	-11.2096
··	-11.2097
胫	-11.2098
摘	-11.2105
长了个	-11.2107
髂	-11.2114
惊厥	-11.2115
鞘膜积液	-11.2116
拉米夫定	-11.2116
农	-11.2116
脊柱侧弯	-11.2117
视野	-11.2118
残余	-11.2119
激动	-11.2121
统	-11.2129
偏头痛	-11.2131
范围约	-11.2132
济宁	-11.2134
假期	-11.2136
ce	-11.214
胆道	-11.2143
骨扫描	-11.2152
制剂	-11.2152
▁和患者	-11.2155
严	-11.2156
善	-11.2158
僵	-11.2158
封	-11.2159
酰	-11.216
中分化	-11.216
▁复旦大学附属中山医院	-11.2161
费用大概是多少	-11.2162
乙肝小三阳	-11.2164
调养	-11.2165
规	-11.2178
询	-11.2185
不用担心	-11.2191
局	-11.2203
植物	-11.2204
瑞金医院	-11.2205
不宜	-11.2206
滨	-11.2206
存活	-11.2207
髋关节脱位	-11.2207
都很正常	-11.2208
差异	-11.2215
RV	-11.2217
比较复杂	-11.2219
脑血栓	-11.2219
官	-11.222
扁桃体炎	-11.222
心脏超声	-11.2222
候	-11.2225
lifan	-11.2233
儿保	-11.2237
nmol	-11.2248
己	-11.2249
效果不大	-11.225
呋	-11.225
依旧	-11.2251
浸润性导管癌	-11.2251
_64760	-11.2252
思维	-11.2252
反弹	-11.2252
深圳市儿童医院	-11.2252
诊刮	-11.2253
黑痣	-11.2256
▁辅助生殖	-11.2257
酒精	-11.2257
是最好的	-11.2257
脑瘫	-11.2258
肝肾功能	-11.2261
针剂	-11.227
营养神经	-11.227
!!!!!!	-11.2273
同意	-11.2277
隆鼻	-11.2281
血液病	-11.2285
之外	-11.2293
提问	-11.2294
螺旋	-11.2296
广泛	-11.2296
复检	-11.2297
眉毛	-11.2298
在床上	-11.23
0-40	-11.2302
lou	-11.2302
您提供的	-11.2307
tan	-11.2308
主肺动脉	-11.2311
平衡	-11.2319
凸起	-11.2336
产前	-11.2341
巨结肠	-11.2341
恶	-11.2342
分布均匀	-11.2342
延迟	-11.2343
没想到	-11.2344
juan	-11.2344
干预	-11.2347
不要太	-11.2348
电话预约	-11.2356
最初	-11.236
限制	-11.236
tj	-11.2366
脐带	-11.2368
短期	-11.2376
退烧药	-11.2381
锥	-11.2385
大小不等	-11.2385
既	-11.2386
锐	-11.2387
内舒拿	-11.2387
华法林	-11.2388
科学技术	-11.2388
一会儿	-11.2391
随诊	-11.2392
今天下午	-11.2398
疏通	-11.2402
回流	-11.2416
主动	-11.2418
RI	-11.2423
抗体阳性	-11.243
hcg	-11.2433
消化内科	-11.2434
局灶	-11.2434
弟弟	-11.2434
慢性宫颈炎	-11.2437
吊水	-11.2441
头孢克	-11.2444
还要继续	-11.2444
过敏性咳嗽	-11.2446
未见扩张	-11.2454
幼儿	-11.2474
终身	-11.2476
抽血化验	-11.2478
膈	-11.2478
泉	-11.2479
苔	-11.2479
肺气肿	-11.2481
两对半	-11.2481
望京医院	-11.2481
给些治疗建议	-11.2481
征象	-11.2481
chi	-11.2482
社区	-11.2484
抖动	-11.2485
随便	-11.2485
壁厚	-11.2487
来我院就诊	-11.2499
忘	-11.2521
欲	-11.2521
海绵	-11.2521
野	-11.2524
泛	-11.2525
剖	-11.2526
胜	-11.2527
包膜完整	-11.2527
边界清楚	-11.2528
射频	-11.2528
诱发	-11.2531
口臭	-11.2535
北大医院	-11.2541
腰背	-11.2543
国外	-11.2543
单侧	-11.2546
首次	-11.2551
▁谢谢王大夫	-11.2552
鼻梁	-11.2553
较差	-11.2555
其内可见	-11.2559
降主动脉	-11.2563
流眼泪	-11.2574
心理咨询科	-11.2574
浑身无力	-11.2577
剧烈运动	-11.2578
weimin	-11.2579
药店	-11.2605
况	-11.2615
阵发性	-11.262
纤维腺瘤	-11.2622
碎石	-11.2623
刷牙	-11.2623
焦急	-11.2623
妇产科	-11.2624
南方医科大学第三附属医院	-11.2627
屁	-11.263
体育	-11.263
下蹲	-11.2657
句	-11.2665
整齐	-11.2667
烧伤整形科	-11.2668
内蒙古	-11.2668
放屁	-11.2669
垂	-11.2672
功能紊乱	-11.2673
接种	-11.2674
平滑	-11.2674
看一看	-11.2678
测值	-11.2684
整体	-11.2694
填	-11.2714
上海市公共卫生临床中心	-11.2715
感染性疾病科	-11.2715
_62239	-11.2716
ting	-11.2716
缺陷	-11.2716
_64649	-11.2716
臀	-11.2724
断奶	-11.2728
壁增厚	-11.2748
万分	-11.275
熬夜	-11.2762
划	-11.2762
阜	-11.2763
青春痘	-11.2763
日常生活	-11.2763
病理切片	-11.2764
平稳	-11.2765
浙江省中医院	-11.2765
周五上午	-11.2767
Ki	-11.2769
在正常范围内	-11.2772
哪一种	-11.2773
fy	-11.2782
单位体检	-11.2786
肺部感染	-11.2788
肘关节	-11.2795
另一个	-11.2806
ICU	-11.2809
超声心动图	-11.281
鼻中隔偏曲	-11.2811
_63333	-11.2811
脑膜瘤	-11.2811
机器	-11.2812
咬合	-11.2813
胎记	-11.2814
乙肝五项	-11.2814
强直	-11.282
wan	-11.2824
产检	-11.2836
膜周部	-11.2856
培	-11.2857
博士	-11.2859
周四下午	-11.2865
白带常规	-11.2865
血检	-11.2868
显示不清	-11.2875
镇痛	-11.2875
牙套	-11.2877
同济医院	-11.2878
四项	-11.2884
量很少	-11.2903
告	-11.2906
LEEP	-11.2907
_64745	-11.2908
哪个科室	-11.2909
使劲	-11.291
折磨	-11.2911
喘气	-11.2911
胸壁	-11.2912
杨教授	-11.2924
SV	-11.2933
少量出血	-11.2939
窦性心律	-11.2946
小叶增生	-11.2956
航空总医院	-11.2956
斑片状	-11.2956
看上去	-11.2957
支气管扩张	-11.2962
考虑手术治疗	-11.2965
南方医科大学中西医结合医院	-11.2966
致密	-11.2975
总蛋白	-11.2981
乙状结肠	-11.3003
祝你早日康复	-11.3005
AO	-11.3007
头围	-11.3008
控制不住	-11.301
低密度影	-11.301
超标	-11.3013
PRL	-11.3014
有用吗	-11.3023
umei	-11.3027
九院	-11.3039
混合痔	-11.3046
未见明显肿大淋巴结	-11.3053
震颤	-11.3053
地坛医院	-11.3053
_64631	-11.3054
尼松	-11.3055
癌前病变	-11.3057
穿刺活检	-11.3061
有人说	-11.3072
同事	-11.3076
例如	-11.3079
在我们当地	-11.3096
私	-11.3097
泄	-11.3098
促甲状腺激素	-11.3101
赖	-11.3102
填充	-11.3103
牛皮癣	-11.3103
123456	-11.3103
南京脑科医院	-11.3103
甲状腺左叶	-11.3106
商量	-11.311
此类	-11.3114
含量	-11.3116
止住	-11.3128
江苏	-11.3134
厕所	-11.3141
Vmax	-11.3149
靶	-11.3152
基础体温	-11.3152
▁上海中医药大学附属龙华医院	-11.3152
想听听	-11.3153
deng	-11.3154
河北省中医院	-11.3154
精索	-11.3156
国家	-11.3159
想了解一下	-11.3166
疼的厉害	-11.3172
7.0	-11.3174
侧弯	-11.3177
抗核抗体	-11.32
肠溶胶囊	-11.3202
▁未曾治疗	-11.3203
立刻	-11.3203
体征	-11.3204
鳞状	-11.3217
起初	-11.3225
聋	-11.3243
heng	-11.3248
纵	-11.3249
人工授精	-11.3252
骨刺	-11.3253
军特色医学中心	-11.3253
卧床休息	-11.3254
粉刺	-11.3254
安装	-11.3258
针刺	-11.3278
除非	-11.3284
风湿免疫科	-11.3291
挫	-11.33
虽	-11.3301
开瑞坦	-11.3302
环磷酰胺	-11.3302
好几年了	-11.3303
滑脱	-11.3305
周二上午	-11.3309
不是很清楚	-11.331
气管炎	-11.3314
几项	-11.3321
眼膏	-11.3321
没有什么问题	-11.3325
饮食方面	-11.3329
溢液	-11.3349
避	-11.3351
轮	-11.3351
磁	-11.3352
复旦大学附属肿瘤医院	-11.3353
尿失禁	-11.3353
昆明	-11.3353
中国医科大学附属第一医院	-11.3353
交界	-11.3355
内痔	-11.3364
季节	-11.3387
影响生育	-11.3393
误诊	-11.3398
持	-11.3399
古	-11.3402
坐骨神经	-11.3403
传统	-11.3404
_64614	-11.3405
气道	-11.3406
功能神经外科	-11.3407
金属	-11.3407
断端	-11.3411
针扎	-11.3414
有什么好办法	-11.3414
关节间隙	-11.3432
喷剂	-11.3439
外侧半月板	-11.344
▁耳鼻咽喉	-11.3444
愿意	-11.3446
职	-11.3453
-----	-11.3454
天津市第一中心医院	-11.3455
ysy	-11.3455
寻求	-11.3456
有什么好的治疗方法	-11.3476
半边	-11.3479
nan	-11.3485
睑	-11.3493
贫	-11.3497
突变	-11.3502
生理曲度	-11.3503
嘱	-11.3504
活血化瘀	-11.3505
刚做完	-11.3505
一般情况下	-11.3506
山东大学第二医院	-11.3506
食品	-11.3506
交替	-11.3509
松解	-11.3515
zhe	-11.3532
燥	-11.3553
云南白药	-11.3557
丰	-11.3557
免费	-11.3558
讲话	-11.3559
开展	-11.3563
主张	-11.3566
异样	-11.3567
泌尿系	-11.3574
yq	-11.3583
江西	-11.3601
协调	-11.3606
奥氮平	-11.3606
咪	-11.3608
二甲双	-11.3609
丙戊酸	-11.3609
妹妹	-11.3609
红斑狼疮	-11.3609
兰州大学第二医院	-11.3609
毕	-11.3609
筛窦	-11.3609
脚底	-11.361
_65512	-11.3613
四肢无力	-11.3613
他汀	-11.3619
曲张	-11.3619
查询	-11.3629
初诊	-11.3639
各方面	-11.3654
低分化腺癌	-11.366
句话	-11.366
结肠镜	-11.366
CEA	-11.3661
泡沫	-11.3661
更好的治疗方法	-11.367
是这样吗	-11.3678
效果不是很好	-11.3693
求医	-11.3697
银杏叶	-11.3713
鉴别	-11.3713
人工受精	-11.3714
睫毛	-11.3715
升主动脉	-11.3716
阻断	-11.3717
抗凝	-11.3725
每个人	-11.373
案	-11.3764
巨细胞病毒	-11.3766
复视	-11.3775
物质	-11.3789
供参考	-11.3797
帮我分析一下	-11.3808
chengji	-11.3811
内部回声	-11.3814
隙	-11.3816
到我门诊	-11.3816
操	-11.3817
睫	-11.3818
营	-11.3818
资	-11.3818
答案	-11.3819
回答我的问题	-11.3819
严不严重	-11.382
锥切	-11.3821
终生	-11.3826
幻听	-11.3829
坠胀	-11.3851
我家小孩	-11.3863
念珠菌	-11.3869
▁首都医科大学附属北京朝阳医院	-11.3871
2011.11.	-11.3871
爷爷	-11.3872
pumch	-11.3873
_63461	-11.3873
郁闷	-11.3873
伽	-11.3873
胸透	-11.3879
两盒	-11.3886
吃点什么药	-11.3895
很苦恼	-11.3905
输卵管不通	-11.3908
替代	-11.3915
关闭	-11.3925
▁肝胆胰外科	-11.3926
▁不用客气	-11.3926
研究中心	-11.3931
巧囊	-11.3958
霉	-11.3976
鲁	-11.3979
威	-11.3979
县级医院	-11.3979
神经性耳聋	-11.398
红红的	-11.398
过完年	-11.3983
喂奶	-11.3996
间接胆红素	-11.4033
drwangyumin	-11.4034
知识	-11.4035
鼻咽部	-11.4043
咳喘	-11.4084
生长因子	-11.4088
设	-11.4088
蛛网膜下腔	-11.4088
_65545	-11.4089
脑沟	-11.4091
果糖	-11.4091
剧痛	-11.4092
扁桃体发炎	-11.4092
电话联系	-11.4121
晨勃	-11.4139
决	-11.4139
吴主任	-11.4139
横径	-11.414
肺纹理	-11.4141
利福平	-11.4141
开塞露	-11.4142
序列	-11.4142
异烟	-11.4142
促甲状腺素	-11.4143
红房子	-11.4143
祝您早日康复	-11.4144
遗精	-11.4145
吸氧	-11.4146
第四人民医院	-11.4147
屈光	-11.4149
几家医院	-11.4152
乳晕	-11.4158
浙江大学医学院附属第二医院	-11.416
晰	-11.4179
0-5	-11.4185
甲状腺球蛋白抗体	-11.4196
挛	-11.4196
择	-11.4197
采	-11.4197
苗	-11.4197
妈咪爱	-11.4198
_62236	-11.4198
鳞状细胞癌	-11.4198
癌胚抗原	-11.4198
_65548	-11.4198
客气	-11.4199
▁关节外科	-11.4201
门脉	-11.4201
味道	-11.4203
南京儿童医院	-11.4205
额叶	-11.4206
发抖	-11.4233
_583	-11.4237
宫腹腔镜	-11.4246
相似	-11.4247
右室流出道	-11.4251
毕业	-11.4251
庄	-11.4253
隐形眼镜	-11.4253
逐步	-11.4254
HER	-11.4256
偏瘫	-11.4256
山西省人民医院	-11.426
期待您的	-11.4262
站起来	-11.4263
合剂	-11.4263
电视	-11.4275
医大二院	-11.4286
上海市第一人民医院	-11.4289
记忆	-11.4303
乏	-11.4304
赛汀	-11.4307
抵	-11.4308
肛周脓肿	-11.4308
▁潍坊市人民医院	-11.4309
又犯了	-11.4309
包茎	-11.4309
▁心脏内科	-11.431
睡眠质量	-11.4311
搏动	-11.4313
eye	-11.4314
火车	-11.4322
妇科微创	-11.4332
输卵管堵塞	-11.4334
同济	-11.4342
距乳头	-11.4362
旬	-11.4363
心包积液	-11.4363
解脲支原体	-11.4364
_65196	-11.4364
无痛人流	-11.4365
穴位	-11.4365
囊实性	-11.4367
路途	-11.4367
创伤骨科	-11.4367
身边	-11.437
是什么原因造成的	-11.4384
逐	-11.4419
昆	-11.4419
材	-11.442
察	-11.442
幽门螺旋杆菌	-11.442
判定	-11.4422
胆碱	-11.4422
_64665	-11.4422
照射	-11.4426
到底是怎么回事	-11.443
局麻	-11.4472
浑浊	-11.4474
诉	-11.4477
能否找你看病	-11.4477
河南省中医药研究院附属医院	-11.4477
尿不尽	-11.4478
实施	-11.4478
顺便	-11.4483
关系不大	-11.4486
双膝	-11.4492
锁	-11.4498
http	-11.4531
著	-11.4531
恳求	-11.4533
重症医学科	-11.4534
HBVDNA	-11.4534
_65462	-11.4535
碱性磷酸酶	-11.4535
经济条件	-11.4535
流涕	-11.4536
私人	-11.454
吃些什么药	-11.4545
诱因	-11.4555
触摸	-11.4564
摩擦	-11.4589
困惑	-11.459
甘油三酯	-11.459
_655383	-11.4591
_62067	-11.4591
我是外地的	-11.4591
注入	-11.4593
同仁	-11.4608
美国	-11.4617
肠系膜	-11.4638
怪	-11.4645
奇怪	-11.4645
简	-11.4646
卵磷脂小体	-11.4648
形态大小正常	-11.4648
风湿性心脏病	-11.4649
精索静脉	-11.465
乳腺导管	-11.4662
州市中心医院	-11.4665
百忙之中的回复	-11.467
峡部厚	-11.4675
研	-11.4706
职业	-11.4706
_64749	-11.4707
跟腱	-11.4707
睡不着觉	-11.4707
细菌培养	-11.4707
特征	-11.4708
顺畅	-11.4708
贴膏药	-11.4708
裤子	-11.4708
抓紧	-11.471
救救我	-11.4723
武汉市第一医院	-11.4725
巧	-11.4728
人工耳	-11.473
睁开	-11.4747
客	-11.4761
食疗	-11.4764
过段时间	-11.4764
万分感激	-11.4765
散瞳验光	-11.4765
仅供参考	-11.4765
县城	-11.4766
产品	-11.4766
弹力	-11.4771
百忙之中给予	-11.4792
肠鸣	-11.4801
子宫内膜厚	-11.4822
乳头状瘤	-11.4822
盛	-11.4823
剥离	-11.4824
电解质	-11.4824
徐州市中医院	-11.4854
壁不厚	-11.4879
鼓楼医院	-11.4881
渐渐	-11.4881
螺	-11.4881
冲击	-11.4881
▁温州医科大学附属	-11.4882
复旦大学附属华东医院	-11.4882
葡萄膜炎	-11.4882
kun	-11.4882
尿频尿急	-11.4882
咋办	-11.4882
冲剂	-11.4886
分叉	-11.4886
更好的办法	-11.4893
泌	-11.4904
哈医大	-11.4908
灼热	-11.4945
晚饭	-11.4948
zhangweiy	-11.4954
重庆医科大学附属儿童医院	-11.4961
氧氟沙星	-11.4994
CRP	-11.4995
章	-11.5
鱼肝油	-11.5
自身免疫	-11.5053
低分化	-11.5058
富	-11.5059
粘膜充血	-11.5063
颊	-11.5119
▁青岛妇女儿童医院	-11.5121
旋转	-11.5121
_64762	-11.5121
系统性红斑狼疮	-11.5122
胸闷气短	-11.5122
帮帮忙	-11.5123
名称	-11.5123
胸腔镜	-11.5148
什	-11.5178
顺铂	-11.5178
甲状腺乳头状癌	-11.518
月下旬	-11.5181
匹	-11.5181
肌酸激酶	-11.5181
▁陆军军医大学	-11.5181
早晨起床	-11.5181
厌食	-11.5182
▁心脏外科	-11.5185
renji	-11.5225
亢	-11.524
点状强回声	-11.5242
滴鼻液	-11.5242
姐姐	-11.5242
感激不尽	-11.5242
_65547	-11.5243
陕西省中医医院	-11.5243
肥	-11.5254
是恶性的	-11.5296
录	-11.5302
台州	-11.5302
糜	-11.5303
哈尔滨医科大学附属第一医院	-11.5304
▁新乡医学院	-11.5304
▁推拿科	-11.5305
四川省人民医院	-11.5305
在你那	-11.5319
潜	-11.5322
能治吗	-11.5328
湖北	-11.5333
事宜	-11.5336
破损	-11.5351
面肌痉挛	-11.5365
挂上您的号	-11.5365
_65080	-11.5365
_65466	-11.5366
泉州	-11.5366
_64764	-11.5367
0-4	-11.5375
般	-11.5413
办理	-11.5414
议	-11.5426
鉴于	-11.5426
_62234	-11.5427
压缩性骨折	-11.5427
对症下药	-11.5427
_64655	-11.5428
原始	-11.5429
要紧吗	-11.5431
风湿性关节炎	-11.5435
不典型增生	-11.5489
蛛网膜囊肿	-11.549
您能否给一些建议	-11.549
急急急	-11.549
迫切	-11.549
末端	-11.5493
屎	-11.5548
▁整形美容	-11.5549
8.0	-11.5549
乙肝表面抗原	-11.5549
乎	-11.555
戊	-11.5551
咖	-11.5553
矮	-11.5607
毫	-11.5611
眨	-11.5685
稠	-11.5742
沫	-11.5807
权	-11.5873
村	-11.5873
腮	-11.589
灌	-11.5996
浮	-11.6001
汉	-11.6002
吞	-11.6003
际	-11.6061
刷	-11.6066
绞	-11.6069
杏	-11.607
髌	-11.6091
继	-11.6131
雌	-11.6239
澡	-11.627
浸	-11.6271
庭	-11.6401
畸	-11.6406
协	-11.6519
阶	-11.6544
溴	-11.6545
狼	-11.6546
眩	-11.6547
父	-11.6717
页	-11.6757
责	-11.6758
航	-11.6758
典	-11.6825
宣	-11.683
矫	-11.6898
竟	-11.69
裤	-11.7091
摩	-11.7118
绵	-11.7119
爸	-11.7172
剧	-11.7179
菲	-11.7193
噜	-11.7269
醋	-11.7341
腭	-11.7343
森	-11.7343
警	-11.7419
佩	-11.7436
昨	-11.7482
撕	-11.7571
妹	-11.7573
队	-11.7724
脖	-11.7803
搭	-11.7808
估	-11.7887
巩	-11.7887
概	-11.7954
殊	-11.8125
唯	-11.8197
姿	-11.821
坛	-11.8375
瞳	-11.846
授	-11.8626
颜	-11.8715
族	-11.8797
弥	-11.8891
扰	-11.8974
鼾	-11.8975
嗓	-11.8976
繁	-11.9053
弟	-11.9069
雅	-11.9069
玻	-11.907
园	-11.9071
胱	-11.9251
曙	-11.9342
迫	-11.9395
申	-11.9402
惑	-11.9434
勒	-11.9435
凌	-11.9435
嗝	-11.9524
褐	-11.9526
灸	-11.9614
孢	-11.9619
铂	-11.9621
臼	-11.9623
辽	-11.9717
败	-11.9718
痹	-11.9806
钴	-11.9814
腋	-12.0089
疫	-12.0208
岳	-12.041
佛	-12.0493
巢	-12.0616
陕	-12.0724
坊	-12.083
脲	-12.083
漫	-12.0937
旦	-12.0978
访	-12.1046
婆	-12.1151
习	-12.1154
梯	-12.1156
训	-12.1268
湘	-12.1268
符	-12.1379
眶	-12.1397
技	-12.1491
蛛	-12.1608
跪	-12.1724
秘	-12.1832
浊	-12.1839
穴	-12.2079
织	-12.2079
监	-12.208
痫	-12.2082
欢	-12.2204
究	-12.2326
键	-12.2326
烈	-12.245
判	-12.283
匀	-12.2833
贞	-12.2967
萎	-12.3099
逸	-12.31
识	-12.3231
峡	-12.3233
狭	-12.3372
趋	-12.3373
勃	-12.3499
循	-12.3512
迎	-12.3653
苑	-12.3654
哮	-12.3941
杆	-12.4235
忆	-12.4237
耽	-12.4238
芽	-12.4541
钼	-12.4543
绍	-12.4543
融	-12.4697
癫	-12.47
纠	-12.4855
醉	-12.499
措	-12.5019
销	-12.5183
恳	-12.5435
孩	-12.5441
描	-12.5507
纪	-12.5673
诱	-12.5791
拇	-12.603
括	-12.6227
吻	-12.6228
杭	-12.633
津	-12.6588
妊	-12.6601
歇	-12.6777
险	-12.7179
痉	-12.7394
睾	-12.7599
礼	-12.7601
盂	-12.7856
龈	-12.8024
茎	-12.8028
楚	-12.8189
析	-12.8479
膀	-12.8713
携	-12.8942
淫	-12.9191
谊	-12.9197
守	-12.9446
绪	-12.9964
弃	-12.9965
厥	-12.9966
韧	-13.0226
殖	-13.051
彻	-13.0513
朋	-13.0515
恼	-13.0737
爷	-13.0799
龟	-13.1372
浑	-13.1392
锻	-13.1706
惧	-13.2032
厉	-13.2363
映	-13.2707
呵	-13.2713
援	-13.3066
酐	-13.3434
痤	-13.3438
胳	-13.3438
厕	-13.4221
恢	-13.5527
综	-13.5527
歉	-13.6004
疡	-13.6005
妻	-13.65
荨	-13.6505
炼	-13.703
幽	-13.7031
惯	-13.7032
愉	-13.7574
疆	-13.8173
咙	-13.8174
祸	-13.8174
疙	-13.8175
朵	-13.875
厘	-13.8799
瘩	-13.9466
咨	-13.9466
允	-14.0182
央	-14.0905
盈	-14.095
睛	-14.1599
嗽	-14.2686
尝	-14.2693
鉴	-14.3678
哺	-14.4777
疸	-14.4801
糙	-14.6052
肪	-14.6053
痊	-14.6055
仔	-14.7481
厦	-14.7481
璃	-14.9149
荐	-15.1149
瘢	-15.3649
癜	-15.6975
圳	-15.6984
贲	-16.1978
阑	-16.198
搐	-16.1981
徽	-16.1981
紊	-16.1982
潍	-16.1982
嚏	-17.1982
膊	-17.1982
啡	-17.1984
础	-17.1985
娠	-17.1986
瘙	-17.1986
